<pad>	0
<s>	0
</s>	0
<unk>	0
▁t	-0
▁a	-1
▁i	-2
▁w	-3
he	-4
re	-5
at	-6
▁s	-7
in	-8
▁c	-9
▁the	-10
on	-11
▁d	-12
▁wh	-13
er	-14
an	-15
▁m	-16
▁b	-17
ou	-18
or	-19
▁h	-20
es	-21
▁f	-22
▁p	-23
▁in	-24
en	-25
▁o	-26
ing	-27
▁what	-28
▁is	-29
▁to	-30
al	-31
it	-32
▁an	-33
ar	-34
ow	-35
ic	-36
le	-37
om	-38
▁do	-39
▁of	-40
▁g	-41
st	-42
▁y	-43
ed	-44
▁l	-45
▁how	-46
▁e	-47
▁you	-48
▁n	-49
ve	-50
▁and	-51
ion	-52
▁are	-53
et	-54
▁th	-55
▁for	-56
ld	-57
as	-58
▁re	-59
is	-60
▁can	-61
ll	-62
▁be	-63
▁u	-64
ent	-65
ct	-66
▁st	-67
ro	-68
ra	-69
id	-70
▁why	-71
▁on	-72
▁it	-73
ce	-74
ly	-75
ch	-76
▁ha	-77
ot	-78
ould	-79
est	-80
se	-81
oo	-82
ver	-83
ri	-84
ke	-85
am	-86
ay	-87
ome	-88
ir	-89
ith	-90
▁li	-91
op	-92
▁my	-93
▁with	-94
ation	-95
▁sh	-96
▁or	-97
ol	-98
ter	-99
ig	-100
ur	-101
▁we	-102
▁that	-103
out	-104
im	-105
▁j	-106
ut	-107
ad	-108
▁whe	-109
nt	-110
▁if	-111
▁mo	-112
▁have	-113
▁does	-114
ill	-115
▁ch	-116
ge	-117
▁k	-118
il	-119
▁de	-120
▁as	-121
pp	-122
ers	-123
fe	-124
us	-125
um	-126
▁he	-127
▁v	-128
▁some	-129
ate	-130
▁con	-131
▁se	-132
▁me	-133
▁pro	-134
ul	-135
ist	-136
rom	-137
▁ma	-138
▁ex	-139
qu	-140
one	-141
▁com	-142
▁get	-143
ich	-144
ant	-145
di	-146
th	-147
▁from	-148
▁r	-149
▁wor	-150
if	-151
▁le	-152
▁which	-153
▁your	-154
▁so	-155
ck	-156
▁at	-157
ess	-158
her	-159
▁ab	-160
▁should	-161
▁ne	-162
▁when	-163
▁su	-164
▁best	-165
▁would	-166
end	-167
▁pe	-168
os	-169
ble	-170
▁un	-171
▁1	-172
ity	-173
ood	-174
ine	-175
▁us	-176
▁any	-177
and	-178
▁not	-179
un	-180
ment	-181
el	-182
art	-183
▁am	-184
▁peop	-185
ive	-186
res	-187
▁people	-188
pe	-189
ans	-190
ies	-191
ht	-192
▁who	-193
▁there	-194
▁indi	-195
▁will	-196
▁tr	-197
▁im	-198
ci	-199
▁like	-200
ical	-201
are	-202
▁af	-203
▁man	-204
▁en	-205
▁2	-206
la	-207
▁qu	-208
ind	-209
▁did	-210
ore	-211
▁about	-212
ud	-213
▁te	-214
▁was	-215
▁comp	-216
ie	-217
▁fa	-218
pt	-219
ort	-220
▁fe	-221
▁go	-222
▁by	-223
our	-224
▁they	-225
age	-226
▁ta	-227
ust	-228
▁bet	-229
ook	-230
▁good	-231
ia	-232
ard	-233
▁al	-234
ink	-235
ure	-236
ain	-237
ip	-238
ally	-239
ong	-240
ount	-241
▁int	-242
ry	-243
og	-244
ite	-245
▁ac	-246
▁their	-247
per	-248
▁ad	-249
iv	-250
der	-251
▁ever	-252
▁dif	-253
ear	-254
ren	-255
ass	-256
▁all	-257
▁one	-258
ide	-259
all	-260
▁mar	-261
ther	-262
▁app	-263
ag	-264
od	-265
▁india	-266
ish	-267
ions	-268
▁cl	-269
▁has	-270
▁ph	-271
▁kn	-272
▁bec	-273
▁pl	-274
ence	-275
▁but	-276
▁where	-277
ice	-278
ang	-279
▁after	-280
▁work	-281
▁pre	-282
em	-283
▁ar	-284
▁think	-285
we	-286
▁jo	-287
▁lo	-288
ue	-289
▁sp	-290
ak	-291
▁year	-292
ame	-293
▁diffe	-294
ab	-295
ap	-296
▁up	-297
ics	-298
▁ra	-299
ime	-300
▁know	-301
▁stud	-302
▁this	-303
▁way	-304
oun	-305
▁other	-306
vel	-307
▁most	-308
ght	-309
▁20	-310
▁eng	-311
▁sc	-312
ast	-313
▁more	-314
iz	-315
ont	-316
ous	-317
ile	-318
arn	-319
pl	-320
ance	-321
▁out	-322
red	-323
ary	-324
ack	-325
▁po	-326
ving	-327
▁make	-328
▁mu	-329
▁many	-330
ult	-331
▁pers	-332
ep	-333
▁use	-334
du	-335
ens	-336
ween	-337
ated	-338
act	-339
▁between	-340
▁co	-341
si	-342
▁than	-343
ight	-344
ber	-345
▁tra	-346
▁no	-347
▁rel	-348
▁bu	-349
▁want	-350
ect	-351
▁them	-352
▁imp	-353
▁time	-354
ations	-355
▁col	-356
▁person	-357
ound	-358
▁someone	-359
▁life	-360
▁much	-361
▁happ	-362
▁count	-363
▁dis	-364
au	-365
gh	-366
▁ro	-367
ress	-368
▁ev	-369
▁cont	-370
ign	-371
riend	-372
▁start	-373
▁per	-374
rent	-375
▁cons	-376
irl	-377
▁feel	-378
rit	-379
ys	-380
ath	-381
▁act	-382
bs	-383
▁acc	-384
▁pos	-385
▁res	-386
ces	-387
able	-388
ild	-389
orm	-390
ree	-391
▁ag	-392
▁were	-393
ting	-394
ory	-395
▁inter	-396
▁world	-397
lect	-398
ian	-399
ump	-400
vers	-401
▁bo	-402
▁spe	-403
eric	-404
ph	-405
ub	-406
ram	-407
▁201	-408
king	-409
▁che	-410
▁girl	-411
reat	-412
▁dont	-413
ac	-414
ool	-415
▁learn	-416
▁its	-417
▁3	-418
ays	-419
oc	-420
ach	-421
ors	-422
▁find	-423
▁take	-424
▁being	-425
ire	-426
ase	-427
▁em	-428
▁off	-429
▁comm	-430
ru	-431
▁could	-432
fect	-433
▁over	-434
▁americ	-435
erm	-436
▁wom	-437
▁just	-438
ents	-439
▁rec	-440
▁his	-441
▁thing	-442
00	-443
▁pol	-444
▁quor	-445
▁bl	-446
▁become	-447
▁mus	-448
ks	-449
▁uni	-450
▁into	-451
▁part	-452
als	-453
▁sa	-454
▁sy	-455
▁new	-456
▁exam	-457
▁need	-458
▁without	-459
▁every	-460
ough	-461
▁sch	-462
sible	-463
▁whats	-464
▁inc	-465
led	-466
▁mean	-467
▁des	-468
▁book	-469
▁under	-470
▁engine	-471
lf	-472
hip	-473
ric	-474
▁la	-475
int	-476
▁gr	-477
▁quora	-478
ering	-479
own	-480
▁ri	-481
cess	-482
▁med	-483
olog	-484
▁ser	-485
▁trump	-486
av	-487
cial	-488
de	-489
rence	-490
ced	-491
▁inv	-492
ism	-493
▁sm	-494
ating	-495
▁better	-496
▁car	-497
ft	-498
ket	-499
ial	-500
▁fl	-501
▁back	-502
ause	-503
▁her	-504
▁job	-505
lic	-506
▁gu	-507
▁possible	-508
wn	-509
▁5	-510
ates	-511
▁long	-512
▁friend	-513
▁compan	-514
▁been	-515
▁school	-516
▁years	-517
ff	-518
ities	-519
▁chin	-520
con	-521
iss	-522
ater	-523
▁hel	-524
▁sex	-525
eth	-526
ful	-527
▁old	-528
ject	-529
▁bus	-530
▁ke	-531
▁att	-532
▁fir	-533
▁pla	-534
▁happen	-535
ail	-536
▁only	-537
▁different	-538
iness	-539
▁indian	-540
oney	-541
▁help	-542
ons	-543
ual	-544
ange	-545
▁rep	-546
▁inst	-547
▁colle	-548
▁elect	-549
▁difference	-550
te	-551
▁mon	-552
up	-553
▁je	-554
uring	-555
line	-556
▁br	-557
▁tw	-558
▁gen	-559
les	-560
▁cal	-561
▁hum	-562
ract	-563
ord	-564
▁trans	-565
▁had	-566
ank	-567
ose	-568
▁gra	-569
▁money	-570
▁own	-571
▁reg	-572
▁real	-573
▁used	-574
its	-575
▁inf	-576
▁look	-577
▁quest	-578
▁still	-579
▁univers	-580
ific	-581
ries	-582
▁buy	-583
▁women	-584
ise	-585
▁hig	-586
▁class	-587
▁really	-588
▁see	-589
▁inte	-590
▁business	-591
▁ty	-592
▁first	-593
ese	-594
▁bel	-595
▁exper	-596
▁even	-597
▁sci	-598
▁she	-599
ily	-600
▁sk	-601
velop	-602
▁study	-603
ick	-604
▁prog	-605
iew	-606
ular	-607
▁stop	-608
▁4	-609
▁fo	-610
▁ind	-611
cy	-612
▁sol	-613
▁right	-614
▁develop	-615
▁pr	-616
▁wr	-617
▁adv	-618
ict	-619
▁fun	-620
▁war	-621
▁bi	-622
ower	-623
▁him	-624
▁say	-625
▁pres	-626
lim	-627
▁exp	-628
oy	-629
▁now	-630
▁child	-631
▁during	-632
▁country	-633
fore	-634
ction	-635
ments	-636
urn	-637
▁while	-638
ts	-639
kes	-640
ody	-641
▁ver	-642
▁produ	-643
▁ob	-644
▁play	-645
ade	-646
▁bas	-647
▁ear	-648
▁our	-649
▁thr	-650
▁tech	-651
ational	-652
self	-653
▁rem	-654
ition	-655
▁char	-656
▁ca	-657
ists	-658
▁again	-659
▁online	-660
cept	-661
▁intern	-662
▁program	-663
lo	-664
▁love	-665
▁before	-666
ms	-667
ians	-668
ative	-669
▁then	-670
▁experi	-671
▁engineering	-672
▁cur	-673
▁top	-674
▁give	-675
▁supp	-676
co	-677
ology	-678
ically	-679
▁college	-680
▁bre	-681
▁cour	-682
▁face	-683
▁using	-684
uc	-685
ale	-686
ved	-687
pect	-688
▁ho	-689
▁cre	-690
▁market	-691
▁sim	-692
▁care	-693
fer	-694
lish	-695
▁cor	-696
▁day	-697
▁down	-698
▁because	-699
▁bla	-700
▁vis	-701
▁same	-702
▁fin	-703
▁mat	-704
▁men	-705
▁cant	-706
▁tell	-707
▁anyone	-708
▁bad	-709
▁ins	-710
sc	-711
hes	-712
ious	-713
▁getting	-714
▁state	-715
ba	-716
▁fam	-717
▁having	-718
▁ent	-719
▁num	-720
other	-721
ually	-722
▁countries	-723
ata	-724
▁university	-725
ages	-726
▁sur	-727
▁prep	-728
▁show	-729
ann	-730
▁ef	-731
▁mov	-732
▁techn	-733
▁dec	-734
▁sub	-735
▁form	-736
▁month	-737
▁str	-738
▁import	-739
▁things	-740
▁account	-741
ds	-742
ash	-743
▁pur	-744
▁two	-745
ution	-746
▁op	-747
▁effect	-748
ple	-749
▁ed	-750
stem	-751
▁lang	-752
▁black	-753
ited	-754
▁big	-755
rest	-756
▁dep	-757
▁leg	-758
▁pri	-759
▁muslim	-760
sw	-761
▁pay	-762
▁free	-763
▁made	-764
orn	-765
▁eu	-766
alth	-767
▁keep	-768
ron	-769
▁place	-770
ert	-771
▁sal	-772
ident	-773
▁langu	-774
▁system	-775
▁som	-776
▁read	-777
▁company	-778
ins	-779
rist	-780
▁law	-781
▁val	-782
▁very	-783
▁belie	-784
ace	-785
ves	-786
▁hy	-787
▁aut	-788
▁pop	-789
▁name	-790
▁sing	-791
▁doing	-792
li	-793
▁av	-794
▁ce	-795
llow	-796
▁ben	-797
▁high	-798
gy	-799
day	-800
book	-801
▁min	-802
▁phys	-803
▁science	-804
▁through	-805
gn	-806
xt	-807
ger	-808
hed	-809
▁answ	-810
ock	-811
ral	-812
▁2017	-813
▁12	-814
▁live	-815
▁writ	-816
▁great	-817
▁change	-818
▁student	-819
▁relations	-820
ize	-821
arch	-822
▁fact	-823
▁true	-824
▁students	-825
az	-826
so	-827
▁aw	-828
▁x	-829
▁10	-830
▁pa	-831
▁pass	-832
▁human	-833
▁english	-834
▁experience	-835
▁prof	-836
▁test	-837
▁polit	-838
▁sw	-839
ants	-840
ream	-841
ures	-842
▁tri	-843
friend	-844
gle	-845
iet	-846
▁fu	-847
atch	-848
uter	-849
▁come	-850
▁such	-851
▁gener	-852
vern	-853
▁bra	-854
▁relationship	-855
▁z	-856
ards	-857
▁serv	-858
be	-859
ason	-860
ings	-861
ones	-862
▁hist	-863
ef	-864
ouse	-865
▁ask	-866
▁air	-867
▁tal	-868
▁govern	-869
ix	-870
form	-871
▁det	-872
▁eas	-873
▁ide	-874
ather	-875
▁design	-876
▁social	-877
ways	-878
thing	-879
▁home	-880
▁invest	-881
▁questions	-882
▁germ	-883
▁going	-884
▁american	-885
me	-886
get	-887
oth	-888
arent	-889
▁post	-890
▁white	-891
▁important	-892
▁fr	-893
ples	-894
▁cle	-895
▁less	-896
▁sign	-897
▁computer	-898
▁sec	-899
▁food	-900
▁ways	-901
▁water	-902
ars	-903
▁euro	-904
▁hand	-905
▁china	-906
▁learning	-907
▁webs	-908
ty	-909
▁el	-910
▁rus	-911
▁2018	-912
▁power	-913
▁commun	-914
▁against	-915
ond	-916
▁ps	-917
▁end	-918
▁giv	-919
▁opt	-920
▁books	-921
ne	-922
ute	-923
ites	-924
▁dem	-925
▁equ	-926
▁lit	-927
▁too	-928
conom	-929
ility	-930
ought	-931
ublic	-932
man	-933
gest	-934
▁ext	-935
▁point	-936
ices	-937
▁kind	-938
▁government	-939
na	-940
▁add	-941
▁art	-942
▁data	-943
▁hard	-944
▁never	-945
▁follow	-946
hi	-947
▁ve	-948
ired	-949
▁maj	-950
ething	-951
▁econom	-952
▁europe	-953
cri	-954
ames	-955
▁met	-956
▁fore	-957
▁build	-958
▁always	-959
▁parent	-960
▁something	-961
ave	-962
ten	-963
▁mem	-964
▁non	-965
▁par	-966
▁soci	-967
▁current	-968
▁language	-969
land	-970
ying	-971
▁def	-972
▁proble	-973
ges	-974
▁incre	-975
▁friends	-976
▁process	-977
ps	-978
ats	-979
ploy	-980
ster	-981
▁mil	-982
▁put	-983
ional	-984
istan	-985
▁kill	-986
▁term	-987
▁impro	-988
▁health	-989
▁states	-990
▁product	-991
gan	-992
ness	-993
▁ass	-994
▁let	-995
▁prov	-996
▁requ	-997
▁major	-998
rol	-999
▁goo	-1000
ality	-1001
ature	-1002
ining	-1003
▁canad	-1004
▁7	-1005
▁100	-1006
▁ret	-1007
▁ter	-1008
▁body	-1009
▁german	-1010
▁number	-1011
▁chinese	-1012
▁dog	-1013
▁fut	-1014
▁win	-1015
▁plan	-1016
▁relig	-1017
▁comple	-1018
▁history	-1019
tle	-1020
▁eat	-1021
▁fav	-1022
▁fem	-1023
▁har	-1024
▁set	-1025
▁norm	-1026
▁christ	-1027
ted	-1028
ines	-1029
▁dist	-1030
▁exist	-1031
▁affect	-1032
mit	-1033
▁cr	-1034
ared	-1035
ield	-1036
vent	-1037
▁boy	-1038
▁vide	-1039
▁allow	-1040
▁parents	-1041
▁interest	-1042
ern	-1043
ince	-1044
ming	-1045
▁opp	-1046
stand	-1047
▁girls	-1048
▁makes	-1049
▁america	-1050
ib	-1051
pes	-1052
▁got	-1053
▁rest	-1054
▁phone	-1055
▁doesnt	-1056
▁8	-1057
com	-1058
ware	-1059
▁rev	-1060
▁suc	-1061
▁cost	-1062
▁earth	-1063
▁house	-1064
▁beh	-1065
▁cam	-1066
▁pat	-1067
▁const	-1068
▁super	-1069
▁accept	-1070
▁future	-1071
▁google	-1072
▁9	-1073
ret	-1074
▁caus	-1075
▁list	-1076
▁main	-1077
▁view	-1078
▁marri	-1079
▁facebook	-1080
▁19	-1081
▁age	-1082
▁sle	-1083
▁write	-1084
imes	-1085
outh	-1086
▁bro	-1087
▁deg	-1088
▁dri	-1089
▁psy	-1090
verage	-1091
▁media	-1092
▁treat	-1093
▁family	-1094
▁working	-1095
▁examples	-1096
ss	-1097
chan	-1098
▁run	-1099
▁cent	-1100
▁found	-1101
▁around	-1102
▁mot	-1103
▁grou	-1104
▁prot	-1105
▁travel	-1106
▁believe	-1107
lly	-1108
cent	-1109
▁god	-1110
▁nor	-1111
▁mass	-1112
▁children	-1113
ied	-1114
ope	-1115
ider	-1116
▁jee	-1117
▁brit	-1118
▁lead	-1119
▁apply	-1120
▁wrong	-1121
▁president	-1122
cc	-1123
ode	-1124
▁dr	-1125
▁imm	-1126
▁kid	-1127
▁pak	-1128
▁call	-1129
▁done	-1130
▁song	-1131
▁benef	-1132
▁another	-1133
▁companies	-1134
▁understand	-1135
ner	-1136
ator	-1137
raph	-1138
▁del	-1139
▁fil	-1140
▁bang	-1141
▁type	-1142
▁light	-1143
▁actually	-1144
ior	-1145
ror	-1146
ues	-1147
wor	-1148
ctor	-1149
onal	-1150
▁ant	-1151
▁civ	-1152
▁jap	-1153
▁usa	-1154
▁conf	-1155
▁pain	-1156
▁soft	-1157
▁break	-1158
▁psych	-1159
▁normal	-1160
▁happens	-1161
ips	-1162
read	-1163
▁net	-1164
▁anim	-1165
▁spec	-1166
▁liber	-1167
▁score	-1168
▁course	-1169
▁employ	-1170
▁gun	-1171
▁guy	-1172
▁able	-1173
▁ment	-1174
idered	-1175
▁civil	-1176
▁stand	-1177
▁manage	-1178
▁mechan	-1179
▁charact	-1180
▁support	-1181
▁considered	-1182
▁id	-1183
ural	-1184
▁grow	-1185
▁move	-1186
▁self	-1187
▁west	-1188
▁japan	-1189
▁music	-1190
▁small	-1191
▁muslims	-1192
ah	-1193
▁uk	-1194
▁iss	-1195
▁mom	-1196
▁stu	-1197
▁wee	-1198
▁dire	-1199
▁rese	-1200
▁average	-1201
▁success	-1202
els	-1203
ills	-1204
▁cra	-1205
▁dev	-1206
▁dra	-1207
▁aust	-1208
▁chem	-1209
▁cult	-1210
▁each	-1211
▁last	-1212
▁open	-1213
▁myself	-1214
▁united	-1215
▁lot	-1216
▁deal	-1217
▁educ	-1218
▁sell	-1219
▁sleep	-1220
▁worth	-1221
▁answer	-1222
▁career	-1223
▁living	-1224
▁pakistan	-1225
ety	-1226
▁ste	-1227
aring	-1228
▁choo	-1229
▁ener	-1230
▁hate	-1231
ission	-1232
▁marks	-1233
gin	-1234
▁11	-1235
ories	-1236
▁chang	-1237
▁favor	-1238
▁movie	-1239
▁short	-1240
▁canada	-1241
▁weight	-1242
▁prepare	-1243
ote	-1244
rop	-1245
▁ir	-1246
▁tv	-1247
▁pen	-1248
▁hind	-1249
▁known	-1250
ression	-1251
▁reason	-1252
▁question	-1253
ital	-1254
▁hot	-1255
▁both	-1256
▁seem	-1257
▁turn	-1258
▁well	-1259
ograph	-1260
▁north	-1261
▁order	-1262
▁woman	-1263
▁improve	-1264
ho	-1265
lam	-1266
mat	-1267
▁15	-1268
▁bat	-1269
▁tax	-1270
▁cert	-1271
▁left	-1272
▁create	-1273
▁control	-1274
▁website	-1275
br	-1276
ark	-1277
erv	-1278
▁ok	-1279
ding	-1280
hing	-1281
▁iit	-1282
▁low	-1283
▁mod	-1284
▁level	-1285
▁south	-1286
▁energy	-1287
ier	-1288
ient	-1289
ters	-1290
▁jew	-1291
▁lar	-1292
▁sit	-1293
▁also	-1294
▁bank	-1295
▁meth	-1296
▁cause	-1297
▁video	-1298
▁called	-1299
▁indust	-1300
▁thought	-1301
▁research	-1302
ik	-1303
▁phot	-1304
▁word	-1305
▁offic	-1306
▁pract	-1307
arc	-1308
▁ap	-1309
▁et	-1310
ffic	-1311
tern	-1312
▁arm	-1313
▁anal	-1314
▁diff	-1315
▁kore	-1316
▁field	-1317
▁increase	-1318
alore	-1319
ances	-1320
phone	-1321
verse	-1322
▁head	-1323
▁priv	-1324
▁didnt	-1325
▁group	-1326
▁space	-1327
▁those	-1328
▁value	-1329
▁applic	-1330
▁degree	-1331
▁making	-1332
▁police	-1333
▁austral	-1334
▁americans	-1335
ird	-1336
ium	-1337
ler	-1338
ove	-1339
▁wa	-1340
▁cat	-1341
▁fre	-1342
▁pun	-1343
onald	-1344
▁days	-1345
▁visit	-1346
▁months	-1347
▁medical	-1348
▁project	-1349
▁writing	-1350
cle	-1351
cul	-1352
ude	-1353
load	-1354
▁ref	-1355
itive	-1356
▁game	-1357
▁hair	-1358
▁mind	-1359
aching	-1360
ration	-1361
▁software	-1362
ify	-1363
▁ge	-1364
▁sl	-1365
bers	-1366
ides	-1367
less	-1368
vert	-1369
▁ban	-1370
▁cap	-1371
▁est	-1372
▁red	-1373
▁tur	-1374
▁tips	-1375
▁death	-1376
▁organ	-1377
▁since	-1378
▁profess	-1379
▁anything	-1380
▁happened	-1381
ead	-1382
omm	-1383
ized	-1384
nect	-1385
▁adm	-1386
▁cit	-1387
▁mach	-1388
▁step	-1389
▁dream	-1390
▁react	-1391
▁speak	-1392
▁common	-1393
▁salary	-1394
▁physics	-1395
▁development	-1396
▁ru	-1397
ency	-1398
osed	-1399
▁aff	-1400
▁bit	-1401
▁card	-1402
▁join	-1403
▁land	-1404
▁avail	-1405
▁given	-1406
▁today	-1407
▁watch	-1408
▁causes	-1409
▁expect	-1410
▁consider	-1411
bi	-1412
mo	-1413
pa	-1414
mer	-1415
cond	-1416
▁far	-1417
itary	-1418
▁away	-1419
▁star	-1420
▁times	-1421
▁choose	-1422
▁donald	-1423
▁public	-1424
▁taking	-1425
▁foreign	-1426
▁instead	-1427
▁effective	-1428
▁marketing	-1429
cl	-1430
ube	-1431
ense	-1432
▁date	-1433
▁earn	-1434
▁resp	-1435
▁democ	-1436
bile	-1437
port	-1438
▁isnt	-1439
▁rank	-1440
▁stat	-1441
▁favorite	-1442
bo	-1443
io	-1444
ma	-1445
ym	-1446
ane	-1447
ses	-1448
▁ey	-1449
cing	-1450
inal	-1451
ives	-1452
▁mic	-1453
▁sho	-1454
▁full	-1455
▁next	-1456
▁orig	-1457
▁safe	-1458
ommend	-1459
▁afric	-1460
▁based	-1461
▁moder	-1462
▁these	-1463
▁others	-1464
▁terror	-1465
▁connect	-1466
▁internet	-1467
▁recommend	-1468
lu	-1469
iod	-1470
ows	-1471
▁sn	-1472
ilar	-1473
ning	-1474
▁cla	-1475
▁loc	-1476
▁proper	-1477
▁service	-1478
nd	-1479
ball	-1480
rect	-1481
reen	-1482
▁bab	-1483
▁cut	-1484
▁city	-1485
▁fight	-1486
▁gradu	-1487
ination	-1488
ulation	-1489
▁method	-1490
▁movies	-1491
▁period	-1492
▁popular	-1493
▁similar	-1494
▁education	-1495
gal	-1496
que	-1497
▁es	-1498
▁cri	-1499
▁jobs	-1500
▁mess	-1501
▁brain	-1502
▁prefer	-1503
▁single	-1504
▁attract	-1505
▁general	-1506
▁indians	-1507
▁startup	-1508
▁bangalore	-1509
▁political	-1510
▁management	-1511
ai	-1512
air	-1513
gra	-1514
nam	-1515
▁18	-1516
ruct	-1517
▁cir	-1518
▁log	-1519
▁mal	-1520
▁mast	-1521
▁said	-1522
▁stay	-1523
▁islam	-1524
▁night	-1525
▁partic	-1526
▁second	-1527
▁germany	-1528
▁looking	-1529
▁military	-1530
cer	-1531
ken	-1532
ots	-1533
rib	-1534
▁bh	-1535
▁er	-1536
▁bir	-1537
▁mba	-1538
▁fall	-1539
▁rich	-1540
▁skin	-1541
▁week	-1542
▁yout	-1543
▁citiz	-1544
▁leave	-1545
▁often	-1546
▁story	-1547
▁percent	-1548
▁everyone	-1549
▁character	-1550
ling	-1551
roid	-1552
view	-1553
▁div	-1554
▁rom	-1555
▁tem	-1556
▁tow	-1557
▁vir	-1558
▁web	-1559
ently	-1560
▁amaz	-1561
▁link	-1562
▁amount	-1563
▁skills	-1564
▁prevent	-1565
▁society	-1566
▁religion	-1567
bit	-1568
oid	-1569
oph	-1570
▁ara	-1571
ished	-1572
▁cell	-1573
▁idea	-1574
▁isra	-1575
▁oper	-1576
▁types	-1577
▁available	-1578
▁technology	-1579
gg	-1580
gr	-1581
▁da	-1582
aths	-1583
▁hur	-1584
▁ive	-1585
icult	-1586
▁else	-1587
▁rate	-1588
▁talk	-1589
▁youn	-1590
▁delhi	-1591
ication	-1592
▁israel	-1593
app	-1594
ims	-1595
sia	-1596
ush	-1597
▁gl	-1598
ison	-1599
llig	-1600
▁cry	-1601
▁dom	-1602
▁due	-1603
▁may	-1604
▁mor	-1605
▁pet	-1606
▁rid	-1607
▁sym	-1608
▁yet	-1609
▁hour	-1610
ources	-1611
▁autom	-1612
▁force	-1613
▁smart	-1614
▁humans	-1615
▁british	-1616
▁problem	-1617
▁special	-1618
▁intellig	-1619
▁difficult	-1620
bal	-1621
che	-1622
▁vi	-1623
atic	-1624
body	-1625
ible	-1626
imum	-1627
oice	-1628
▁etc	-1629
▁mer	-1630
▁sug	-1631
▁wal	-1632
ister	-1633
▁mult	-1634
▁phil	-1635
▁purp	-1636
▁influ	-1637
▁female	-1638
▁inform	-1639
▁android	-1640
▁electron	-1641
▁mechanical	-1642
▁successful	-1643
▁ww	-1644
anch	-1645
▁bar	-1646
▁glo	-1647
▁hit	-1648
▁var	-1649
ledge	-1650
ption	-1651
▁code	-1652
▁easy	-1653
▁incl	-1654
▁mill	-1655
▁news	-1656
▁prom	-1657
▁role	-1658
▁team	-1659
▁speed	-1660
▁worst	-1661
▁direct	-1662
▁russia	-1663
▁machine	-1664
▁personal	-1665
▁boyfriend	-1666
▁international	-1667
igh	-1668
uck	-1669
▁pu	-1670
ptop	-1671
▁los	-1672
▁pot	-1673
▁sun	-1674
▁area	-1675
▁gain	-1676
▁opin	-1677
▁past	-1678
▁wear	-1679
▁sound	-1680
▁studi	-1681
ization	-1682
▁contin	-1683
▁laptop	-1684
▁mobile	-1685
▁modern	-1686
▁biggest	-1687
▁meaning	-1688
▁present	-1689
▁protect	-1690
▁australia	-1691
por	-1692
▁di	-1693
▁ur	-1694
lain	-1695
ship	-1696
▁nat	-1697
▁neg	-1698
ision	-1699
lling	-1700
▁fast	-1701
▁miss	-1702
▁activ	-1703
▁blood	-1704
▁legal	-1705
▁paper	-1706
▁stock	-1707
ography	-1708
▁instit	-1709
▁result	-1710
▁subject	-1711
▁complete	-1712
▁engineer	-1713
▁services	-1714
▁girlfriend	-1715
▁programming	-1716
ama	-1717
gen	-1718
sel	-1719
abad	-1720
ased	-1721
▁rac	-1722
▁case	-1723
▁lose	-1724
▁meet	-1725
istics	-1726
▁mathe	-1727
▁private	-1728
▁related	-1729
▁youtube	-1730
▁liberals	-1731
▁training	-1732
▁interview	-1733
ala	-1734
aut	-1735
har	-1736
iate	-1737
ender	-1738
▁cust	-1739
▁sent	-1740
▁appro	-1741
▁party	-1742
antages	-1743
▁mother	-1744
▁object	-1745
▁strong	-1746
▁culture	-1747
▁function	-1748
▁industry	-1749
▁mathemat	-1750
▁products	-1751
▁required	-1752
▁knowledge	-1753
ume	-1754
ung	-1755
ross	-1756
ucle	-1757
▁200	-1758
▁mid	-1759
▁tre	-1760
enced	-1761
ready	-1762
▁blog	-1763
▁cond	-1764
▁foot	-1765
▁room	-1766
▁russi	-1767
▁eating	-1768
▁rather	-1769
▁select	-1770
▁already	-1771
▁contact	-1772
▁national	-1773
▁problems	-1774
rap	-1775
unt	-1776
ury	-1777
val	-1778
ches	-1779
▁ach	-1780
▁occ	-1781
▁sam	-1782
▁sum	-1783
istic	-1784
▁drink	-1785
▁games	-1786
▁ident	-1787
▁liter	-1788
▁mater	-1789
▁nucle	-1790
▁share	-1791
▁advice	-1792
▁descri	-1793
▁secret	-1794
▁allowed	-1795
▁example	-1796
▁download	-1797
▁everything	-1798
den	-1799
lle	-1800
med	-1801
▁cy	-1802
band	-1803
fact	-1804
ured	-1805
anger	-1806
ouble	-1807
▁prop	-1808
▁seen	-1809
▁surv	-1810
idence	-1811
▁store	-1812
▁electr	-1813
▁scient	-1814
▁though	-1815
▁perform	-1816
▁coaching	-1817
▁christian	-1818
ipp	-1819
use	-1820
way	-1821
augh	-1822
come	-1823
▁cop	-1824
▁sla	-1825
▁tou	-1826
▁vol	-1827
order	-1828
▁guys	-1829
▁line	-1830
▁lost	-1831
▁purs	-1832
▁send	-1833
▁shop	-1834
▁wind	-1835
ensive	-1836
▁begin	-1837
▁block	-1838
▁check	-1839
▁creat	-1840
▁email	-1841
▁press	-1842
▁behind	-1843
▁enough	-1844
▁iphone	-1845
▁necess	-1846
▁solution	-1847
ets	-1848
osp	-1849
ton	-1850
▁30	-1851
ping	-1852
work	-1853
▁dig	-1854
▁jav	-1855
▁lat	-1856
▁crit	-1857
▁hold	-1858
▁kids	-1859
▁marry	-1860
▁price	-1861
▁appear	-1862
▁attack	-1863
▁democr	-1864
▁option	-1865
▁places	-1866
▁purpose	-1867
▁benefits	-1868
▁japanese	-1869
▁studying	-1870
igr	-1871
ogn	-1872
▁50	-1873
lace	-1874
orts	-1875
▁die	-1876
▁eth	-1877
▁gay	-1878
ences	-1879
ortun	-1880
▁redu	-1881
▁text	-1882
▁finan	-1883
▁micro	-1884
▁model	-1885
▁invent	-1886
▁moving	-1887
▁answers	-1888
▁correct	-1889
let	-1890
rug	-1891
ases	-1892
here	-1893
itch	-1894
ward	-1895
▁ang	-1896
▁dam	-1897
▁env	-1898
▁fix	-1899
▁nit	-1900
▁obs	-1901
▁sat	-1902
▁tam	-1903
▁tot	-1904
illed	-1905
istry	-1906
▁bill	-1907
▁disc	-1908
▁narc	-1909
▁says	-1910
▁side	-1911
▁site	-1912
▁clear	-1913
▁daily	-1914
▁happy	-1915
▁wants	-1916
olution	-1917
▁little	-1918
▁employe	-1919
▁marriage	-1920
▁republic	-1921
50	-1922
ny	-1923
ake	-1924
bai	-1925
eng	-1926
ley	-1927
ateg	-1928
ined	-1929
▁ign	-1930
▁ill	-1931
▁mur	-1932
rench	-1933
▁arab	-1934
▁athe	-1935
▁dest	-1936
▁fear	-1937
▁here	-1938
▁host	-1939
▁outs	-1940
▁pict	-1941
▁radi	-1942
▁vers	-1943
▁polic	-1944
ability	-1945
▁access	-1946
▁chance	-1947
▁custom	-1948
▁determ	-1949
▁global	-1950
▁remove	-1951
▁explain	-1952
▁married	-1953
▁started	-1954
▁opportun	-1955
▁starting	-1956
▁depression	-1957
▁information	-1958
20	-1959
ga	-1960
zy	-1961
000	-1962
umb	-1963
▁13	-1964
▁wi	-1965
math	-1966
▁phd	-1967
▁ris	-1968
acher	-1969
ators	-1970
ified	-1971
urity	-1972
▁ille	-1973
▁modi	-1974
▁rece	-1975
▁rele	-1976
lement	-1977
▁bring	-1978
▁clean	-1979
▁least	-1980
▁terms	-1981
▁youve	-1982
aration	-1983
▁calcul	-1984
▁famous	-1985
▁impact	-1986
▁likely	-1987
▁animals	-1988
▁narciss	-1989
▁quality	-1990
▁colleges	-1991
▁necessary	-1992
▁population	-1993
sh	-1994
ya	-1995
oud	-1996
ager	-1997
ered	-1998
over	-1999
wood	-2000
▁bal	-2001
▁enj	-2002
▁mum	-2003
▁sil	-2004
▁yes	-2005
▁neet	-2006
▁situ	-2007
itions	-2008
selves	-2009
usband	-2010
▁birth	-2011
▁amazon	-2012
▁french	-2013
▁courses	-2014
▁towards	-2015
▁specific	-2016
▁thinking	-2017
▁universe	-2018
▁admission	-2019
xy	-2020
iest	-2021
tech	-2022
used	-2023
▁ann	-2024
▁fat	-2025
anced	-2026
asons	-2027
▁acad	-2028
▁cred	-2029
▁dead	-2030
▁jews	-2031
▁male	-2032
▁must	-2033
▁ones	-2034
▁poor	-2035
▁stra	-2036
cially	-2037
▁becom	-2038
▁commit	-2039
▁higher	-2040
▁matter	-2041
▁regard	-2042
▁return	-2043
▁series	-2044
▁within	-2045
▁husband	-2046
▁officer	-2047
▁teacher	-2048
▁chemical	-2049
dle	-2050
yle	-2051
▁du	-2052
▁ms	-2053
reme	-2054
tery	-2055
▁box	-2056
▁emp	-2057
▁hal	-2058
▁son	-2059
epend	-2060
▁cele	-2061
▁dele	-2062
▁gate	-2063
▁insp	-2064
▁save	-2065
▁visa	-2066
rences	-2067
▁achie	-2068
▁basic	-2069
▁heart	-2070
▁korea	-2071
▁limit	-2072
▁scope	-2073
▁songs	-2074
▁tamil	-2075
▁academ	-2076
▁doctor	-2077
▁issues	-2078
▁trying	-2079
▁useful	-2080
▁chances	-2081
▁concept	-2082
▁european	-2083
▁thoughts	-2084
ca	-2085
ana	-2086
ani	-2087
ech	-2088
omb	-2089
▁14	-2090
ched	-2091
indi	-2092
▁abs	-2093
▁fla	-2094
▁foc	-2095
▁mag	-2096
▁try	-2097
oring	-2098
▁cann	-2099
▁comb	-2100
▁doll	-2101
▁laws	-2102
▁near	-2103
▁tool	-2104
▁viol	-2105
▁enjoy	-2106
▁shoot	-2107
▁views	-2108
▁mental	-2109
▁rights	-2110
▁conserv	-2111
▁effects	-2112
▁opinion	-2113
▁independ	-2114
▁community	-2115
▁themselves	-2116
▁application	-2117
of	-2118
ug	-2119
cum	-2120
ift	-2121
oms	-2122
row	-2123
▁ai	-2124
coin	-2125
▁hom	-2126
▁lab	-2127
▁ple	-2128
▁vit	-2129
agram	-2130
iable	-2131
imate	-2132
▁conc	-2133
▁dark	-2134
▁diet	-2135
▁gold	-2136
▁ital	-2137
▁manu	-2138
▁qual	-2139
▁sure	-2140
▁along	-2141
▁asked	-2142
▁board	-2143
▁hindu	-2144
▁lives	-2145
▁pregn	-2146
▁spend	-2147
▁table	-2148
▁includ	-2149
▁struct	-2150
▁brother	-2151
▁economy	-2152
▁nuclear	-2153
▁provide	-2154
ification	-2155
▁building	-2156
▁electric	-2157
▁negative	-2158
▁physical	-2159
▁instagram	-2160
▁0	-2161
mar	-2162
▁iq	-2163
▁vs	-2164
▁smo	-2165
ource	-2166
▁cook	-2167
▁fire	-2168
▁fres	-2169
▁once	-2170
▁port	-2171
▁teen	-2172
▁vict	-2173
▁wars	-2174
ctions	-2175
▁alone	-2176
▁avoid	-2177
▁cheap	-2178
▁facts	-2179
▁green	-2180
▁offer	-2181
▁quant	-2182
▁solve	-2183
▁three	-2184
▁young	-2185
▁commer	-2186
▁mumbai	-2187
▁racist	-2188
▁sexual	-2189
▁topics	-2190
▁outside	-2191
▁systems	-2192
▁compared	-2193
▁manufact	-2194
▁websites	-2195
▁universities	-2196
ov	-2197
hen	-2198
ilt	-2199
ina	-2200
ker	-2201
ney	-2202
ided	-2203
ised	-2204
most	-2205
▁bud	-2206
▁few	-2207
▁hes	-2208
▁joh	-2209
apore	-2210
▁apps	-2211
▁cast	-2212
▁fail	-2213
▁hours	-2214
▁motiv	-2215
▁africa	-2216
▁compet	-2217
▁father	-2218
▁record	-2219
▁nothing	-2220
▁schools	-2221
▁pressure	-2222
▁yourself	-2223
tt	-2224
hol	-2225
key	-2226
urb	-2227
uss	-2228
ven	-2229
iled	-2230
iron	-2231
orce	-2232
▁den	-2233
▁jud	-2234
▁key	-2235
▁pal	-2236
▁ram	-2237
▁army	-2238
▁draw	-2239
▁pack	-2240
▁paid	-2241
▁porn	-2242
▁race	-2243
▁suic	-2244
▁brand	-2245
▁claim	-2246
▁early	-2247
▁graph	-2248
▁large	-2249
▁taken	-2250
▁train	-2251
▁danger	-2252
▁report	-2253
▁respon	-2254
▁stream	-2255
▁changed	-2256
▁numbers	-2257
▁constant	-2258
▁singapore	-2259
▁mathematics	-2260
▁q	-2261
cks	-2262
hel	-2263
▁ep	-2264
▁pc	-2265
etic	-2266
ging	-2267
ners	-2268
▁gas	-2269
▁won	-2270
▁arch	-2271
▁ball	-2272
▁cars	-2273
▁clot	-2274
▁east	-2275
▁king	-2276
▁okay	-2277
▁plat	-2278
▁pros	-2279
▁size	-2280
▁told	-2281
▁uses	-2282
atures	-2283
▁accom	-2284
▁arent	-2285
▁chall	-2286
▁chann	-2287
▁color	-2288
▁event	-2289
▁exact	-2290
▁final	-2291
▁obama	-2292
▁quick	-2293
▁inside	-2294
▁office	-2295
▁plants	-2296
▁review	-2297
ological	-2298
▁environ	-2299
▁feeling	-2300
▁natural	-2301
▁partner	-2302
▁require	-2303
▁talking	-2304
▁western	-2305
▁chemistry	-2306
▁institute	-2307
▁percentage	-2308
by	-2309
fs	-2310
amp	-2311
bon	-2312
cut	-2313
mon	-2314
▁cb	-2315
▁cs	-2316
ored	-2317
upid	-2318
▁ago	-2319
▁cse	-2320
▁dia	-2321
▁fit	-2322
▁hyp	-2323
▁max	-2324
▁oil	-2325
▁pub	-2326
ising	-2327
rated	-2328
▁beat	-2329
▁coun	-2330
▁emot	-2331
▁hurt	-2332
▁mist	-2333
▁pune	-2334
▁sens	-2335
▁crush	-2336
▁medic	-2337
▁sites	-2338
▁weird	-2339
▁almost	-2340
▁asking	-2341
▁letter	-2342
▁proced	-2343
▁techni	-2344
▁accompl	-2345
▁healthy	-2346
▁reasons	-2347
▁regular	-2348
▁advanced	-2349
▁original	-2350
▁security	-2351
▁transfer	-2352
▁environment	-2353
▁preparation	-2354
go	-2355
mb	-2356
cra	-2357
ham	-2358
min	-2359
sib	-2360
vid	-2361
▁17	-2362
ials	-2363
utes	-2364
▁bul	-2365
▁emb	-2366
▁pil	-2367
▁rul	-2368
ember	-2369
▁baby	-2370
▁camp	-2371
▁coll	-2372
▁desp	-2373
▁dogs	-2374
▁expl	-2375
▁nice	-2376
▁page	-2377
▁reci	-2378
▁tele	-2379
▁upsc	-2380
atives	-2381
▁daugh	-2382
▁ideas	-2383
▁invol	-2384
▁later	-2385
▁names	-2386
▁seems	-2387
▁total	-2388
▁words	-2389
▁works	-2390
▁youre	-2391
▁analys	-2392
▁income	-2393
▁multip	-2394
▁needed	-2395
▁stupid	-2396
▁classes	-2397
▁contain	-2398
▁illegal	-2399
▁playing	-2400
▁citizens	-2401
▁situation	-2402
▁electrical	-2403
▁interesting	-2404
▁communication	-2405
bt	-2406
ze	-2407
aur	-2408
nna	-2409
off	-2410
ray	-2411
uge	-2412
eria	-2413
ques	-2414
rodu	-2415
stic	-2416
unch	-2417
word	-2418
▁hol	-2419
▁tar	-2420
▁vac	-2421
asing	-2422
▁cbse	-2423
▁drug	-2424
▁file	-2425
▁viet	-2426
anning	-2427
ential	-2428
ground	-2429
iction	-2430
ressed	-2431
▁behav	-2432
▁grand	-2433
▁novel	-2434
▁immigr	-2435
▁longer	-2436
▁perman	-2437
▁theory	-2438
fficient	-2439
▁clothes	-2440
▁extreme	-2441
▁indones	-2442
▁masters	-2443
▁reading	-2444
▁russian	-2445
▁studies	-2446
▁suggest	-2447
▁distance	-2448
▁positive	-2449
▁expensive	-2450
▁financial	-2451
▁languages	-2452
▁religious	-2453
▁resources	-2454
▁advantages	-2455
▁completely	-2456
▁differences	-2457
▁professional	-2458
cu	-2459
cel	-2460
des	-2461
ged	-2462
het	-2463
ids	-2464
oor	-2465
ota	-2466
ails	-2467
iety	-2468
road	-2469
▁hor	-2470
▁rob	-2471
▁ssc	-2472
icket	-2473
vious	-2474
▁came	-2475
▁cold	-2476
▁cool	-2477
▁half	-2478
▁john	-2479
itable	-2480
▁apple	-2481
▁drive	-2482
▁shows	-2483
▁steps	-2484
▁altern	-2485
▁corpor	-2486
▁credit	-2487
▁nation	-2488
▁player	-2489
▁recent	-2490
▁reject	-2491
▁collect	-2492
▁factors	-2493
▁vietnam	-2494
▁becoming	-2495
▁football	-2496
▁material	-2497
cs	-2498
ha	-2499
mi	-2500
avy	-2501
ero	-2502
xic	-2503
▁au	-2504
cies	-2505
ever	-2506
ried	-2507
▁anx	-2508
▁cod	-2509
▁fed	-2510
▁pie	-2511
▁que	-2512
▁sud	-2513
▁wed	-2514
anish	-2515
cient	-2516
ctors	-2517
right	-2518
▁base	-2519
▁deep	-2520
▁fake	-2521
▁fund	-2522
▁adult	-2523
▁apart	-2524
▁asian	-2525
▁dress	-2526
▁hindi	-2527
▁hyder	-2528
▁issue	-2529
▁lower	-2530
▁purch	-2531
▁chenna	-2532
▁cities	-2533
▁easily	-2534
▁killed	-2535
▁policy	-2536
▁pursue	-2537
▁search	-2538
▁unique	-2539
▁achieve	-2540
▁bitcoin	-2541
▁challen	-2542
▁contrib	-2543
▁respect	-2544
▁describe	-2545
▁property	-2546
▁signific	-2547
▁procedure	-2548
▁treatment	-2549
▁accomplish	-2550
ux	-2551
acy	-2552
ali	-2553
ene	-2554
erc	-2555
ffe	-2556
lls	-2557
mes	-2558
son	-2559
▁ba	-2560
▁ic	-2561
▁ip	-2562
▁mi	-2563
icle	-2564
pped	-2565
racy	-2566
rict	-2567
▁bes	-2568
▁cou	-2569
▁cru	-2570
▁hyd	-2571
▁mad	-2572
▁pan	-2573
cohol	-2574
ients	-2575
▁blue	-2576
▁burn	-2577
▁evil	-2578
▁hosp	-2579
▁java	-2580
▁rule	-2581
▁stre	-2582
▁suff	-2583
▁weap	-2584
▁wife	-2585
▁agree	-2586
▁among	-2587
▁analy	-2588
▁beaut	-2589
▁disco	-2590
▁estab	-2591
▁femin	-2592
▁mains	-2593
▁older	-2594
▁sales	-2595
llywood	-2596
▁advert	-2597
▁animal	-2598
▁branch	-2599
▁entire	-2600
▁master	-2601
▁memory	-2602
▁recogn	-2603
▁threat	-2604
▁ancient	-2605
▁chennai	-2606
▁content	-2607
▁despite	-2608
▁analysis	-2609
▁features	-2610
▁overcome	-2611
▁politics	-2612
▁practice	-2613
▁undergra	-2614
▁currently	-2615
▁intelligent	-2616
mp	-2617
men	-2618
und	-2619
urs	-2620
ades	-2621
aves	-2622
hood	-2623
ring	-2624
soci	-2625
▁ast	-2626
▁lim	-2627
▁mel	-2628
▁ten	-2629
▁tit	-2630
▁unt	-2631
ended	-2632
iling	-2633
ounds	-2634
▁born	-2635
▁boys	-2636
▁chur	-2637
▁conv	-2638
▁film	-2639
▁gets	-2640
▁grav	-2641
▁harm	-2642
▁jack	-2643
▁magn	-2644
▁meas	-2645
▁prin	-2646
▁wont	-2647
lished	-2648
▁comes	-2649
▁corru	-2650
▁court	-2651
▁cover	-2652
▁defin	-2653
▁heard	-2654
▁maint	-2655
▁might	-2656
▁refer	-2657
▁trust	-2658
▁users	-2659
▁abroad	-2660
▁hindus	-2661
▁photos	-2662
▁simple	-2663
▁battery	-2664
▁consult	-2665
▁created	-2666
▁devices	-2667
▁politic	-2668
▁realize	-2669
▁restaur	-2670
▁version	-2671
▁disorder	-2672
▁feelings	-2673
▁greatest	-2674
▁platform	-2675
▁standard	-2676
▁hyderabad	-2677
▁interested	-2678
▁opportunities	-2679
tm	-2680
asc	-2681
lex	-2682
ole	-2683
rew	-2684
▁cg	-2685
ancy	-2686
ises	-2687
onym	-2688
▁ali	-2689
▁bed	-2690
▁eye	-2691
▁fac	-2692
▁mix	-2693
▁saf	-2694
▁squ	-2695
▁tro	-2696
iring	-2697
opath	-2698
ously	-2699
rency	-2700
▁auth	-2701
▁bomb	-2702
▁cash	-2703
▁math	-2704
▁pred	-2705
▁risk	-2706
▁road	-2707
gether	-2708
▁camer	-2709
▁close	-2710
▁crime	-2711
▁exerc	-2712
▁focus	-2713
▁front	-2714
▁plant	-2715
▁style	-2716
▁topic	-2717
▁voice	-2718
▁worse	-2719
ference	-2720
▁accord	-2721
▁buying	-2722
▁cannot	-2723
▁planet	-2724
▁sudden	-2725
▁transl	-2726
pecially	-2727
▁alcohol	-2728
▁certain	-2729
▁compare	-2730
▁individ	-2731
▁running	-2732
▁stories	-2733
▁windows	-2734
▁graduate	-2735
▁together	-2736
▁christians	-2737
▁investment	-2738
fl	-2739
rs	-2740
ork	-2741
ped	-2742
rum	-2743
uly	-2744
uth	-2745
▁py	-2746
ague	-2747
ruit	-2748
tain	-2749
▁bac	-2750
▁bur	-2751
▁mis	-2752
▁sep	-2753
ength	-2754
ester	-2755
iding	-2756
inary	-2757
osoph	-2758
▁band	-2759
▁cand	-2760
▁eyes	-2761
▁four	-2762
▁gram	-2763
▁heat	-2764
▁iron	-2765
▁mand	-2766
▁prob	-2767
▁rent	-2768
▁sold	-2769
▁stri	-2770
▁wast	-2771
urance	-2772
▁crypt	-2773
▁freed	-2774
▁means	-2775
▁peace	-2776
ruction	-2777
▁actual	-2778
▁attend	-2779
▁charge	-2780
▁events	-2781
▁faster	-2782
▁middle	-2783
▁prison	-2784
▁speech	-2785
▁temper	-2786
▁ticket	-2787
▁digital	-2788
▁maximum	-2789
▁methods	-2790
▁options	-2791
▁certific	-2792
▁everyday	-2793
▁recently	-2794
▁sentence	-2795
▁according	-2796
▁structure	-2797
▁especially	-2798
▁particular	-2799
▁characteristics	-2800
ox	-2801
att	-2802
ems	-2803
old	-2804
ott	-2805
▁21	-2806
akes	-2807
empt	-2808
ends	-2809
ighb	-2810
ires	-2811
very	-2812
▁ber	-2813
▁dim	-2814
▁ele	-2815
▁enc	-2816
▁fly	-2817
▁swe	-2818
icles	-2819
inton	-2820
itect	-2821
owers	-2822
▁fish	-2823
▁forg	-2824
▁kash	-2825
▁poly	-2826
▁rout	-2827
▁spir	-2828
▁wait	-2829
▁wall	-2830
▁wood	-2831
ension	-2832
▁exams	-2833
▁grade	-2834
▁maths	-2835
▁teach	-2836
▁third	-2837
▁affair	-2838
▁anonym	-2839
▁cancer	-2840
▁carbon	-2841
▁coming	-2842
▁destro	-2843
▁flight	-2844
▁listen	-2845
▁moment	-2846
▁neighb	-2847
▁reduce	-2848
▁remain	-2849
▁repres	-2850
▁saying	-2851
▁season	-2852
▁therap	-2853
▁anxiety	-2854
▁citizen	-2855
▁minimum	-2856
▁recover	-2857
▁suicide	-2858
▁survive	-2859
▁wedding	-2860
▁whether	-2861
▁written	-2862
▁continue	-2863
▁position	-2864
▁powerful	-2865
▁dangerous	-2866
▁developed	-2867
▁developer	-2868
▁economics	-2869
▁following	-2870
▁electronics	-2871
▁experienced	-2872
arr	-2873
ask	-2874
ell	-2875
han	-2876
oss	-2877
fort	-2878
ival	-2879
ived	-2880
omet	-2881
rome	-2882
▁arg	-2883
▁asp	-2884
▁dat	-2885
▁ess	-2886
▁san	-2887
▁sau	-2888
▁sem	-2889
▁sen	-2890
▁sha	-2891
▁upd	-2892
▁wat	-2893
ither	-2894
izing	-2895
▁drop	-2896
▁feed	-2897
▁five	-2898
▁hack	-2899
▁iran	-2900
▁jour	-2901
▁milk	-2902
▁note	-2903
▁trad	-2904
▁user	-2905
utions	-2906
▁crack	-2907
▁cross	-2908
▁enter	-2909
▁glass	-2910
▁needs	-2911
isation	-2912
▁acting	-2913
▁associ	-2914
▁celebr	-2915
▁dating	-2916
▁france	-2917
▁handle	-2918
▁sister	-2919
▁turkey	-2920
▁wanted	-2921
▁benefit	-2922
▁channel	-2923
▁driving	-2924
▁himself	-2925
▁knowing	-2926
▁spanish	-2927
▁daughter	-2928
▁multiple	-2929
▁reaction	-2930
▁remember	-2931
▁architect	-2932
▁determine	-2933
▁employees	-2934
▁technical	-2935
▁terrorist	-2936
▁activities	-2937
▁background	-2938
▁literature	-2939
▁techniques	-2940
da	-2941
yl	-2942
▁23	-2943
▁ut	-2944
head	-2945
hest	-2946
uses	-2947
▁dip	-2948
▁fal	-2949
▁fig	-2950
▁ias	-2951
▁lay	-2952
▁mah	-2953
▁ran	-2954
▁rot	-2955
▁tor	-2956
▁vot	-2957
apers	-2958
arian	-2959
atory	-2960
cript	-2961
ority	-2962
▁audi	-2963
▁exch	-2964
▁fair	-2965
▁guns	-2966
▁late	-2967
▁mart	-2968
▁pric	-2969
▁rock	-2970
▁vill	-2971
▁vote	-2972
▁went	-2973
ention	-2974
▁categ	-2975
▁local	-2976
▁roman	-2977
▁until	-2978
▁whole	-2979
ilities	-2980
itional	-2981
▁mostly	-2982
▁capital	-2983
▁convert	-2984
▁dollars	-2985
▁finance	-2986
▁freedom	-2987
▁killing	-2988
▁liberal	-2989
▁million	-2990
▁pattern	-2991
▁perfect	-2992
▁produce	-2993
▁replace	-2994
▁wouldnt	-2995
▁contract	-2996
▁planning	-2997
▁programs	-2998
▁sleeping	-2999
▁straight	-3000
▁functions	-3001
▁philosoph	-3002
▁characters	-3003
▁narcissist	-3004
▁personality	-3005
▁intelligence	-3006
▁accomplishments	-3007
my	-3008
ob	-3009
pr	-3010
gor	-3011
gre	-3012
nic	-3013
pal	-3014
pur	-3015
put	-3016
ria	-3017
ula	-3018
wal	-3019
▁ib	-3020
▁ii	-3021
▁ja	-3022
▁ye	-3023
lied	-3024
pper	-3025
▁dad	-3026
▁dro	-3027
▁dub	-3028
▁gst	-3029
▁lea	-3030
▁lic	-3031
▁sin	-3032
anned	-3033
craft	-3034
rogen	-3035
urate	-3036
vered	-3037
▁airl	-3038
▁bike	-3039
▁hire	-3040
▁mole	-3041
▁rain	-3042
▁rape	-3043
▁scri	-3044
▁swed	-3045
▁tall	-3046
▁tren	-3047
▁weak	-3048
▁basis	-3049
▁below	-3050
▁colon	-3051
▁docum	-3052
▁harry	-3053
▁judge	-3054
▁occur	-3055
▁sense	-3056
▁somet	-3057
▁tried	-3058
▁church	-3059
▁detect	-3060
▁double	-3061
▁itself	-3062
▁korean	-3063
▁latest	-3064
▁murder	-3065
▁obtain	-3066
▁possib	-3067
▁source	-3068
▁street	-3069
▁address	-3070
▁britain	-3071
▁manager	-3072
▁masturb	-3073
▁network	-3074
▁quantum	-3075
▁traffic	-3076
▁trouble	-3077
▁usually	-3078
▁evidence	-3079
▁pictures	-3080
▁speaking	-3081
▁democrats	-3082
▁evolution	-3083
▁extremely	-3084
▁insurance	-3085
▁regarding	-3086
▁challenges	-3087
▁internship	-3088
▁independent	-3089
▁temperature	-3090
ee	-3091
fu	-3092
ta	-3093
wh	-3094
akh	-3095
ari	-3096
arm	-3097
pro	-3098
set	-3099
ste	-3100
yal	-3101
▁24	-3102
▁hi	-3103
▁pg	-3104
ains	-3105
ault	-3106
time	-3107
uing	-3108
▁bsc	-3109
▁flu	-3110
▁jes	-3111
▁jun	-3112
▁mac	-3113
▁sus	-3114
▁veh	-3115
aking	-3116
aster	-3117
inate	-3118
itude	-3119
▁karn	-3120
▁liqu	-3121
▁remo	-3122
▁turk	-3123
▁wish	-3124
opaths	-3125
▁built	-3126
▁cards	-3127
▁crazy	-3128
▁gives	-3129
▁mexic	-3130
▁parts	-3131
▁reach	-3132
▁round	-3133
▁solar	-3134
▁touch	-3135
▁veget	-3136
▁candid	-3137
▁choice	-3138
▁colour	-3139
▁differ	-3140
▁giving	-3141
▁league	-3142
▁member	-3143
▁muscle	-3144
▁nature	-3145
▁script	-3146
▁seeing	-3147
▁switch	-3148
▁wealth	-3149
▁besides	-3150
▁clinton	-3151
▁exactly	-3152
▁gravity	-3153
▁leaders	-3154
▁legally	-3155
▁respond	-3156
▁serious	-3157
▁applying	-3158
▁atheists	-3159
▁election	-3160
▁projects	-3161
10	-3162
bu	-3163
ji	-3164
adv	-3165
ked	-3166
lor	-3167
ply	-3168
▁dc	-3169
▁mb	-3170
▁ny	-3171
▁pi	-3172
▁ss	-3173
anda	-3174
ghan	-3175
osis	-3176
plic	-3177
raid	-3178
soft	-3179
▁500	-3180
▁bri	-3181
▁cow	-3182
▁dav	-3183
▁hon	-3184
▁lif	-3185
▁msc	-3186
▁nig	-3187
▁tex	-3188
▁voc	-3189
ategy	-3190
board	-3191
duate	-3192
iforn	-3193
▁deli	-3194
▁dise	-3195
▁geor	-3196
▁hear	-3197
▁loan	-3198
▁loss	-3199
▁moon	-3200
▁pret	-3201
▁sche	-3202
▁soon	-3203
▁subs	-3204
▁wake	-3205
▁zero	-3206
▁equal	-3207
▁hands	-3208
▁jesus	-3209
▁likes	-3210
▁schol	-3211
▁signs	-3212
▁taxes	-3213
▁teeth	-3214
▁track	-3215
▁truth	-3216
itation	-3217
▁afford	-3218
▁afraid	-3219
▁became	-3220
▁conver	-3221
▁damage	-3222
▁disadv	-3223
▁empire	-3224
▁height	-3225
▁length	-3226
▁obsess	-3227
▁simply	-3228
▁stress	-3229
▁target	-3230
▁transg	-3231
▁trumps	-3232
▁videos	-3233
▁african	-3234
▁biology	-3235
▁details	-3236
▁doctors	-3237
▁england	-3238
▁express	-3239
▁sources	-3240
▁accounts	-3241
▁californ	-3242
▁exchange	-3243
▁pregnant	-3244
▁watching	-3245
▁calculate	-3246
▁implement	-3247
▁permanent	-3248
▁sometimes	-3249
▁generation	-3250
▁individual	-3251
▁psychology	-3252
rm	-3253
aka	-3254
bol	-3255
ida	-3256
rif	-3257
▁25	-3258
▁dy	-3259
▁lg	-3260
▁ly	-3261
ales	-3262
face	-3263
iful	-3264
ller	-3265
▁bon	-3266
▁dut	-3267
▁gre	-3268
▁lad	-3269
▁naz	-3270
▁sky	-3271
▁tod	-3272
force	-3273
itter	-3274
ivity	-3275
ondon	-3276
pects	-3277
▁acid	-3278
▁bits	-3279
▁copy	-3280
▁gand	-3281
▁gree	-3282
▁load	-3283
▁slow	-3284
▁york	-3285
ending	-3286
▁actor	-3287
▁aiims	-3288
▁andor	-3289
▁frequ	-3290
▁radio	-3291
▁range	-3292
▁reven	-3293
▁sympt	-3294
▁trade	-3295
▁truly	-3296
▁weeks	-3297
mission	-3298
▁action	-3299
▁delete	-3300
▁favour	-3301
▁growth	-3302
▁histor	-3303
▁london	-3304
▁palest	-3305
▁please	-3306
▁regist	-3307
▁sports	-3308
▁summer	-3309
▁supply	-3310
▁surger	-3311
atically	-3312
▁applied	-3313
▁balance	-3314
▁changes	-3315
▁constit	-3316
▁convers	-3317
▁discuss	-3318
▁members	-3319
▁peoples	-3320
▁quickly	-3321
▁recruit	-3322
▁academic	-3323
▁accurate	-3324
▁drinking	-3325
▁maintain	-3326
▁shooting	-3327
▁shouldnt	-3328
▁strategy	-3329
▁beautiful	-3330
▁engineers	-3331
▁influence	-3332
▁transform	-3333
▁transport	-3334
▁attractive	-3335
▁connection	-3336
▁certificate	-3337
▁performance	-3338
▁republicans	-3339
▁applications	-3340
▁christianity	-3341
18	-3342
ex	-3343
ii	-3344
ns	-3345
ws	-3346
ili	-3347
lom	-3348
rep	-3349
uls	-3350
yan	-3351
▁od	-3352
▁rs	-3353
back	-3354
chat	-3355
eral	-3356
erve	-3357
idge	-3358
itor	-3359
oles	-3360
olic	-3361
otic	-3362
thon	-3363
vere	-3364
xual	-3365
▁deb	-3366
▁gam	-3367
▁hat	-3368
▁mut	-3369
▁nar	-3370
▁rad	-3371
▁raj	-3372
▁sad	-3373
▁spo	-3374
▁typ	-3375
▁wit	-3376
ached	-3377
aling	-3378
ental	-3379
fully	-3380
inger	-3381
where	-3382
▁dumb	-3383
▁fram	-3384
▁imag	-3385
▁init	-3386
▁lawy	-3387
▁neut	-3388
▁pick	-3389
▁scen	-3390
▁snap	-3391
▁trip	-3392
▁absol	-3393
▁brown	-3394
▁btech	-3395
▁looks	-3396
▁manip	-3397
▁meant	-3398
▁motor	-3399
▁mount	-3400
▁separ	-3401
▁shall	-3402
▁solid	-3403
▁stuff	-3404
▁bachel	-3405
▁center	-3406
▁consum	-3407
▁decide	-3408
▁demand	-3409
▁easier	-3410
▁gender	-3411
▁hitler	-3412
▁hotels	-3413
▁jewish	-3414
▁native	-3415
▁screen	-3416
▁values	-3417
▁attempt	-3418
▁billion	-3419
▁central	-3420
▁century	-3421
▁comfort	-3422
▁complex	-3423
▁concern	-3424
▁destroy	-3425
▁formula	-3426
▁fresher	-3427
▁leaving	-3428
▁mention	-3429
▁philipp	-3430
▁surgery	-3431
▁turkish	-3432
▁various	-3433
▁washing	-3434
▁weapons	-3435
▁wearing	-3436
▁changing	-3437
▁inspired	-3438
▁password	-3439
▁produced	-3440
▁reliable	-3441
▁biography	-3442
▁followers	-3443
▁including	-3444
▁placement	-3445
▁represent	-3446
▁statement	-3447
▁acceptable	-3448
▁california	-3449
▁commercial	-3450
▁influenced	-3451
▁production	-3452
▁statistics	-3453
▁construction	-3454
▁relationships	-3455
ls	-3456
to	-3457
ban	-3458
lin	-3459
olk	-3460
▁40	-3461
▁eg	-3462
▁pm	-3463
bert	-3464
char	-3465
gypt	-3466
ores	-3467
▁amb	-3468
▁bag	-3469
▁cab	-3470
▁cup	-3471
▁fee	-3472
▁fel	-3473
▁gar	-3474
▁inn	-3475
▁ira	-3476
▁las	-3477
▁oxy	-3478
▁sik	-3479
andom	-3480
antic	-3481
aries	-3482
etime	-3483
gress	-3484
ially	-3485
pping	-3486
press	-3487
riate	-3488
▁1000	-3489
▁cath	-3490
▁decl	-3491
▁fine	-3492
▁flat	-3493
▁hang	-3494
▁mark	-3495
▁mars	-3496
▁pupp	-3497
▁seat	-3498
▁suck	-3499
▁swim	-3500
▁above	-3501
▁abuse	-3502
▁angry	-3503
▁aware	-3504
▁chick	-3505
▁condu	-3506
▁egypt	-3507
▁false	-3508
▁fully	-3509
▁hotel	-3510
▁print	-3511
▁rules	-3512
▁sever	-3513
▁sugar	-3514
▁tools	-3515
idering	-3516
▁afghan	-3517
▁assist	-3518
▁bengal	-3519
▁campus	-3520
▁coding	-3521
▁depart	-3522
▁forces	-3523
▁havent	-3524
▁karnat	-3525
▁origin	-3526
▁papers	-3527
▁paying	-3528
▁resist	-3529
▁scared	-3530
▁sector	-3531
▁symbol	-3532
▁virgin	-3533
ifically	-3534
▁ability	-3535
▁cryptoc	-3536
▁disease	-3537
▁growing	-3538
▁persons	-3539
▁protest	-3540
▁receive	-3541
▁results	-3542
▁selling	-3543
▁absolute	-3544
▁accident	-3545
▁affected	-3546
▁directly	-3547
▁economic	-3548
▁employee	-3549
▁previous	-3550
▁purchase	-3551
▁scholars	-3552
▁sexually	-3553
▁startups	-3554
▁subjects	-3555
▁suddenly	-3556
▁teachers	-3557
▁definition	-3558
▁electronic	-3559
▁terrorists	-3560
▁considering	-3561
▁transgender	-3562
11	-3563
ax	-3564
cd	-3565
gs	-3566
ka	-3567
ati	-3568
irt	-3569
log	-3570
rel	-3571
ulf	-3572
vil	-3573
war	-3574
▁90	-3575
▁ul	-3576
cast	-3577
dies	-3578
down	-3579
icks	-3580
iles	-3581
ingu	-3582
oint	-3583
reng	-3584
room	-3585
▁aim	-3586
▁aud	-3587
▁bow	-3588
▁der	-3589
▁dur	-3590
▁egg	-3591
▁fif	-3592
▁fra	-3593
▁ken	-3594
▁lin	-3595
▁nad	-3596
▁nav	-3597
▁sbi	-3598
▁scr	-3599
▁sou	-3600
▁via	-3601
estic	-3602
inity	-3603
ively	-3604
place	-3605
rible	-3606
ulate	-3607
▁adop	-3608
▁cric	-3609
▁fees	-3610
▁gift	-3611
▁hill	-3612
▁huge	-3613
▁root	-3614
▁sand	-3615
▁shut	-3616
▁sick	-3617
▁tend	-3618
▁whos	-3619
gorith	-3620
▁banks	-3621
▁blind	-3622
▁cells	-3623
▁heavy	-3624
▁items	-3625
▁oppos	-3626
▁penis	-3627
▁waste	-3628
ionally	-3629
ologies	-3630
pective	-3631
▁arrest	-3632
▁battle	-3633
▁compar	-3634
▁cutoff	-3635
▁either	-3636
▁ethnic	-3637
▁except	-3638
▁formed	-3639
▁linked	-3640
▁points	-3641
▁retail	-3642
▁spirit	-3643
▁spread	-3644
▁todays	-3645
ropriate	-3646
▁cricket	-3647
▁finding	-3648
▁highest	-3649
▁italian	-3650
▁joining	-3651
▁largest	-3652
▁mistake	-3653
▁picture	-3654
▁species	-3655
▁strateg	-3656
▁approach	-3657
▁category	-3658
▁customer	-3659
▁equation	-3660
▁invented	-3661
▁majority	-3662
▁movement	-3663
▁selected	-3664
▁somebody	-3665
▁supposed	-3666
▁symptoms	-3667
▁violence	-3668
▁corporate	-3669
▁happening	-3670
▁karnataka	-3671
▁microsoft	-3672
▁preparing	-3673
▁constantly	-3674
▁developing	-3675
▁importance	-3676
▁restaurant	-3677
▁scientific	-3678
▁recommended	-3679
▁responsible	-3680
▁conservatives	-3681
▁disadvantages	-3682
▁manufacturing	-3683
▁understanding	-3684
15	-3685
17	-3686
90	-3687
bb	-3688
ey	-3689
jp	-3690
rd	-3691
vi	-3692
anc	-3693
ias	-3694
ils	-3695
ino	-3696
olf	-3697
wan	-3698
zer	-3699
▁ax	-3700
ably	-3701
aged	-3702
ceed	-3703
cles	-3704
ffee	-3705
gers	-3706
host	-3707
mary	-3708
mers	-3709
rate	-3710
rene	-3711
sung	-3712
term	-3713
viet	-3714
▁boo	-3715
▁cos	-3716
▁don	-3717
▁eff	-3718
▁exe	-3719
▁ice	-3720
▁kit	-3721
▁lie	-3722
▁mit	-3723
▁ped	-3724
▁ven	-3725
arter	-3726
books	-3727
cular	-3728
light	-3729
▁arts	-3730
▁asia	-3731
▁cats	-3732
▁cope	-3733
▁disp	-3734
▁edit	-3735
▁epis	-3736
▁fant	-3737
▁fasc	-3738
▁fash	-3739
▁fuck	-3740
▁gala	-3741
▁mbbs	-3742
▁rice	-3743
▁stom	-3744
▁stor	-3745
▁till	-3746
ensity	-3747
isions	-3748
ortion	-3749
▁areas	-3750
▁cases	-3751
▁catch	-3752
▁chart	-3753
▁chest	-3754
▁datab	-3755
▁dubai	-3756
▁ended	-3757
▁entry	-3758
▁journ	-3759
▁keeps	-3760
▁lines	-3761
▁mahar	-3762
▁noise	-3763
▁photo	-3764
▁proof	-3765
▁prove	-3766
▁saudi	-3767
▁stick	-3768
▁subst	-3769
▁takes	-3770
▁across	-3771
▁coffee	-3772
▁diplom	-3773
▁gandhi	-3774
▁groups	-3775
▁oxygen	-3776
▁python	-3777
▁random	-3778
▁regret	-3779
▁safety	-3780
▁square	-3781
▁status	-3782
▁streng	-3783
▁turned	-3784
▁update	-3785
▁advance	-3786
▁artific	-3787
▁continu	-3788
▁counter	-3789
▁helpful	-3790
▁nations	-3791
▁samsung	-3792
▁showing	-3793
▁station	-3794
▁trading	-3795
▁accepted	-3796
▁algorith	-3797
▁behavior	-3798
▁calories	-3799
▁decision	-3800
▁location	-3801
▁messages	-3802
▁relative	-3803
▁attention	-3804
▁cryptocur	-3805
▁democracy	-3806
▁europeans	-3807
▁favourite	-3808
▁generally	-3809
▁investing	-3810
▁practical	-3811
▁completing	-3812
▁immigrants	-3813
▁motivation	-3814
▁physically	-3815
▁placements	-3816
▁advertising	-3817
▁philippines	-3818
▁specifically	-3819
▁undergraduate	-3820
do	-3821
hm	-3822
ql	-3823
wa	-3824
ams	-3825
can	-3826
how	-3827
mir	-3828
ris	-3829
unk	-3830
uro	-3831
xit	-3832
▁cu	-3833
▁hd	-3834
▁lu	-3835
▁ox	-3836
▁ug	-3837
hern	-3838
iner	-3839
ipur	-3840
list	-3841
osit	-3842
ught	-3843
umin	-3844
▁300	-3845
▁ads	-3846
▁cig	-3847
▁ece	-3848
▁exc	-3849
▁gov	-3850
▁ios	-3851
▁led	-3852
▁nam	-3853
▁pra	-3854
▁rat	-3855
▁six	-3856
▁tim	-3857
▁ult	-3858
lands	-3859
▁2000	-3860
▁ange	-3861
▁beef	-3862
▁defe	-3863
▁goes	-3864
▁hero	-3865
▁hole	-3866
▁icse	-3867
▁jump	-3868
▁lack	-3869
▁lens	-3870
▁nort	-3871
▁park	-3872
▁quit	-3873
▁repe	-3874
▁ring	-3875
▁shot	-3876
▁town	-3877
▁twin	-3878
angers	-3879
coming	-3880
vision	-3881
▁anime	-3882
▁bangl	-3883
▁bible	-3884
▁carry	-3885
▁david	-3886
▁extra	-3887
▁floor	-3888
▁fresh	-3889
▁habit	-3890
▁image	-3891
▁italy	-3892
▁logic	-3893
▁metal	-3894
▁mtech	-3895
▁piece	-3896
▁posts	-3897
▁prior	-3898
▁quota	-3899
▁serve	-3900
▁smell	-3901
▁storm	-3902
▁tough	-3903
▁urine	-3904
▁whose	-3905
▁analyt	-3906
▁breast	-3907
▁brexit	-3908
▁budget	-3909
▁contro	-3910
▁critic	-3911
▁define	-3912
▁device	-3913
▁integr	-3914
▁interp	-3915
▁phones	-3916
▁prices	-3917
▁profit	-3918
▁resume	-3919
▁worlds	-3920
▁consist	-3921
▁distrib	-3922
▁fashion	-3923
▁forever	-3924
▁harmful	-3925
▁introdu	-3926
▁limited	-3927
▁message	-3928
▁profile	-3929
▁recipes	-3930
▁release	-3931
▁treated	-3932
▁younger	-3933
▁activity	-3934
▁convince	-3935
▁exercise	-3936
▁expected	-3937
▁fighting	-3938
▁interact	-3939
▁involved	-3940
▁neighbor	-3941
▁palestin	-3942
▁progress	-3943
▁suitable	-3944
▁superior	-3945
▁whatsapp	-3946
▁direction	-3947
▁efficient	-3948
▁elections	-3949
▁indonesia	-3950
▁corruption	-3951
▁democratic	-3952
▁afghanistan	-3953
▁effectively	-3954
▁conservative	-3955
▁requirements	-3956
▁significance	-3957
21	-3958
30	-3959
ae	-3960
hy	-3961
ju	-3962
ky	-3963
ni	-3964
bre	-3965
dom	-3966
eal	-3967
gas	-3968
oty	-3969
▁80	-3970
▁bp	-3971
▁cp	-3972
▁ju	-3973
▁ko	-3974
arat	-3975
ario	-3976
cher	-3977
cket	-3978
ened	-3979
iser	-3980
iter	-3981
lymp	-3982
onic	-3983
otes	-3984
rial	-3985
rier	-3986
▁194	-3987
▁cro	-3988
▁hab	-3989
▁ker	-3990
▁mir	-3991
▁mos	-3992
▁rif	-3993
▁sea	-3994
▁tom	-3995
▁unf	-3996
chool	-3997
fered	-3998
iance	-3999
inder	-4000
otech	-4001
usive	-4002
▁anti	-4003
▁arms	-4004
▁braz	-4005
▁capt	-4006
▁diam	-4007
▁elig	-4008
▁enem	-4009
▁felt	-4010
▁flow	-4011
▁hall	-4012
▁hell	-4013
▁hide	-4014
▁inse	-4015
▁iraq	-4016
▁kolk	-4017
▁rein	-4018
▁volt	-4019
▁weed	-4020
▁wild	-4021
ertain	-4022
ousand	-4023
ricult	-4024
▁alive	-4025
▁comed	-4026
▁decre	-4027
▁domin	-4028
▁fault	-4029
▁feels	-4030
▁funds	-4031
▁funny	-4032
▁ghost	-4033
▁hasnt	-4034
▁hypoc	-4035
▁integ	-4036
▁james	-4037
▁loved	-4038
▁occup	-4039
▁olymp	-4040
▁putin	-4041
▁queen	-4042
▁raise	-4043
▁rates	-4044
▁stage	-4045
▁texas	-4046
igation	-4047
▁banned	-4048
▁belong	-4049
▁caused	-4050
▁crimes	-4051
▁depend	-4052
▁estate	-4053
▁expand	-4054
▁fantas	-4055
▁losing	-4056
▁motion	-4057
▁propag	-4058
▁senior	-4059
▁soviet	-4060
▁theyre	-4061
▁writer	-4062
igration	-4063
▁affairs	-4064
▁angular	-4065
▁anybody	-4066
▁beliefs	-4067
▁blocked	-4068
▁concent	-4069
▁failure	-4070
▁fiction	-4071
▁install	-4072
▁kashmir	-4073
▁kolkata	-4074
▁measure	-4075
▁objects	-4076
▁opening	-4077
▁payment	-4078
▁putting	-4079
▁section	-4080
▁setting	-4081
▁several	-4082
▁stomach	-4083
▁therapy	-4084
▁twitter	-4085
▁agricult	-4086
▁currency	-4087
▁employer	-4088
▁identify	-4089
▁identity	-4090
▁relation	-4091
▁thousand	-4092
▁candidate	-4093
▁condition	-4094
▁depressed	-4095
▁discovered	-4096
▁historical	-4097
▁revolution	-4098
▁alternative	-4099
▁appropriate	-4100
▁electricity	-4101
▁established	-4102
▁politicians	-4103
▁psychopaths	-4104
▁scholarship	-4105
▁constitution	-4106
▁automatically	-4107
▁environmental	-4108
ja	-4109
ara	-4110
asa	-4111
bed	-4112
oop	-4113
▁35	-4114
▁tu	-4115
hold	-4116
iers	-4117
itar	-4118
like	-4119
llab	-4120
mber	-4121
mbly	-4122
sequ	-4123
▁aer	-4124
▁atm	-4125
▁bay	-4126
▁bjp	-4127
▁ble	-4128
▁cau	-4129
▁cgl	-4130
▁fan	-4131
▁fro	-4132
▁kne	-4133
▁map	-4134
▁nut	-4135
▁obc	-4136
▁rap	-4137
▁syn	-4138
▁tan	-4139
▁tel	-4140
▁vel	-4141
erior	-4142
icate	-4143
icted	-4144
iency	-4145
rance	-4146
usion	-4147
uting	-4148
▁atom	-4149
▁boss	-4150
▁budd	-4151
▁butt	-4152
▁chat	-4153
▁clos	-4154
▁cogn	-4155
▁core	-4156
▁cure	-4157
▁flag	-4158
▁fuel	-4159
▁genu	-4160
▁jail	-4161
▁libr	-4162
▁lord	-4163
▁mich	-4164
▁mong	-4165
▁morn	-4166
▁myth	-4167
▁nose	-4168
▁poll	-4169
▁rise	-4170
▁rude	-4171
▁sequ	-4172
▁sikh	-4173
▁synd	-4174
▁took	-4175
▁upon	-4176
▁walk	-4177
▁wwii	-4178
ediate	-4179
onents	-4180
orters	-4181
sembly	-4182
▁admin	-4183
▁annoy	-4184
▁blame	-4185
▁chess	-4186
▁cream	-4187
▁cruel	-4188
▁cycle	-4189
▁dance	-4190
▁diagn	-4191
▁drugs	-4192
▁homes	-4193
▁ideal	-4194
▁intel	-4195
▁loves	-4196
▁moral	-4197
▁owner	-4198
▁pharm	-4199
▁pilot	-4200
▁prote	-4201
▁shoes	-4202
▁spons	-4203
▁toler	-4204
▁union	-4205
ivalent	-4206
reprene	-4207
▁author	-4208
▁belief	-4209
▁brazil	-4210
▁cancel	-4211
▁disapp	-4212
▁domain	-4213
▁execut	-4214
▁hisher	-4215
▁infect	-4216
▁launch	-4217
▁leader	-4218
▁marvel	-4219
▁princi	-4220
▁punish	-4221
▁saving	-4222
▁severe	-4223
▁syllab	-4224
▁taught	-4225
▁victor	-4226
▁wonder	-4227
▁amazing	-4228
▁assault	-4229
▁atheist	-4230
▁charges	-4231
▁chicken	-4232
▁comment	-4233
▁conduct	-4234
▁divorce	-4235
▁element	-4236
▁experim	-4237
▁forward	-4238
▁islamic	-4239
▁minutes	-4240
▁missing	-4241
▁morning	-4242
▁package	-4243
▁publish	-4244
▁reality	-4245
▁reviews	-4246
▁scratch	-4247
▁testing	-4248
▁vehicle	-4249
▁voltage	-4250
▁witness	-4251
▁catholic	-4252
▁commerce	-4253
▁congress	-4254
▁criteria	-4255
▁domestic	-4256
▁elements	-4257
▁existing	-4258
▁hospital	-4259
▁improved	-4260
▁literary	-4261
▁officers	-4262
▁opposite	-4263
▁passport	-4264
▁pursuing	-4265
▁register	-4266
▁snapchat	-4267
▁syndrome	-4268
▁visiting	-4269
▁bollywood	-4270
▁existence	-4271
▁immediate	-4272
▁materials	-4273
▁potential	-4274
▁pregnancy	-4275
▁suffering	-4276
▁artificial	-4277
▁conditions	-4278
▁equivalent	-4279
▁graduation	-4280
▁scientists	-4281
▁television	-4282
▁transition	-4283
▁opportunity	-4284
▁architecture	-4285
▁technologies	-4286
▁consideration	-4287
14	-4288
aw	-4289
bc	-4290
js	-4291
ki	-4292
bel	-4293
erg	-4294
gar	-4295
gon	-4296
ica	-4297
iit	-4298
oes	-4299
ras	-4300
rie	-4301
ril	-4302
ums	-4303
▁22	-4304
▁27	-4305
▁70	-4306
▁hr	-4307
▁mp	-4308
amin	-4309
anes	-4310
asht	-4311
bles	-4312
brit	-4313
eter	-4314
ilty	-4315
lier	-4316
olar	-4317
rees	-4318
rote	-4319
sing	-4320
ties	-4321
uted	-4322
wise	-4323
▁bip	-4324
▁bot	-4325
▁dou	-4326
▁fur	-4327
▁gif	-4328
▁nag	-4329
▁sup	-4330
anted	-4331
ately	-4332
aysia	-4333
cious	-4334
icial	-4335
ishes	-4336
ville	-4337
wards	-4338
works	-4339
▁asks	-4340
▁bran	-4341
▁cart	-4342
▁dece	-4343
▁dent	-4344
▁dies	-4345
▁ecom	-4346
▁feet	-4347
▁fifa	-4348
▁flor	-4349
▁fort	-4350
▁gone	-4351
▁hous	-4352
▁kiss	-4353
▁lakh	-4354
▁legs	-4355
▁lock	-4356
▁lung	-4357
▁plus	-4358
▁poem	-4359
▁prem	-4360
▁pump	-4361
▁sout	-4362
▁stam	-4363
▁tank	-4364
▁unit	-4365
▁virt	-4366
antage	-4367
mitted	-4368
▁broke	-4369
▁canon	-4370
▁chlor	-4371
▁faith	-4372
▁genoc	-4373
▁javas	-4374
▁labor	-4375
▁plane	-4376
▁prime	-4377
▁ready	-4378
▁scale	-4379
▁spain	-4380
▁steel	-4381
▁stops	-4382
▁teams	-4383
▁throw	-4384
▁wasnt	-4385
▁wrote	-4386
brities	-4387
▁active	-4388
▁actors	-4389
▁basket	-4390
▁breath	-4391
▁centre	-4392
▁circum	-4393
▁combat	-4394
▁dreams	-4395
▁embarr	-4396
▁failed	-4397
▁former	-4398
▁habits	-4399
▁helped	-4400
▁hospit	-4401
▁leaves	-4402
▁liquid	-4403
▁played	-4404
▁powers	-4405
▁presid	-4406
▁refuge	-4407
▁reserv	-4408
▁resign	-4409
▁settle	-4410
▁sweden	-4411
▁traits	-4412
▁visual	-4413
▁yellow	-4414
▁conflic	-4415
▁deleted	-4416
▁genuine	-4417
▁hillary	-4418
▁justice	-4419
▁neutral	-4420
▁offered	-4421
▁reprodu	-4422
▁smoking	-4423
▁telling	-4424
▁tourist	-4425
▁typical	-4426
▁willing	-4427
▁worship	-4428
▁writers	-4429
▁administ	-4430
▁aircraft	-4431
▁articles	-4432
▁breaking	-4433
▁canadian	-4434
▁humanity	-4435
▁internal	-4436
▁malaysia	-4437
▁marrying	-4438
▁opinions	-4439
▁romantic	-4440
▁semester	-4441
▁upcoming	-4442
▁attracted	-4443
▁computers	-4444
▁designing	-4445
▁establish	-4446
▁pakistani	-4447
▁businesses	-4448
▁confidence	-4449
▁entreprene	-4450
▁increasing	-4451
▁profession	-4452
▁celebrities	-4453
▁immediately	-4454
▁probability	-4455
▁significant	-4456
▁conversation	-4457
dt	-4458
gi	-4459
no	-4460
agn	-4461
any	-4462
aps	-4463
cal	-4464
gun	-4465
hab	-4466
imb	-4467
mus	-4468
ony	-4469
rem	-4470
rer	-4471
tml	-4472
uto	-4473
vin	-4474
▁ay	-4475
▁bc	-4476
▁gm	-4477
▁ie	-4478
▁os	-4479
▁uc	-4480
anka	-4481
arin	-4482
berg	-4483
care	-4484
dule	-4485
just	-4486
odes	-4487
omen	-4488
oura	-4489
play	-4490
rics	-4491
writ	-4492
▁cho	-4493
▁fle	-4494
▁gro	-4495
▁gym	-4496
▁haw	-4497
▁ine	-4498
▁jer	-4499
▁jio	-4500
▁kim	-4501
▁kur	-4502
▁ord	-4503
▁pig	-4504
▁rub	-4505
▁sac	-4506
▁seo	-4507
▁upv	-4508
▁wel	-4509
aging	-4510
ching	-4511
idden	-4512
merce	-4513
under	-4514
▁acqu	-4515
▁fans	-4516
▁govt	-4517
▁html	-4518
▁hunt	-4519
▁isis	-4520
▁jose	-4521
▁kept	-4522
▁kick	-4523
▁lect	-4524
▁lies	-4525
▁luck	-4526
▁mine	-4527
▁path	-4528
▁paul	-4529
▁plot	-4530
▁sort	-4531
▁susp	-4532
▁tact	-4533
▁agent	-4534
▁amend	-4535
▁angle	-4536
▁blogs	-4537
▁calls	-4538
▁capac	-4539
▁cloud	-4540
▁dying	-4541
▁essay	-4542
▁firms	-4543
▁flash	-4544
▁foods	-4545
▁forms	-4546
▁frame	-4547
▁fraud	-4548
▁freel	-4549
▁heshe	-4550
▁honey	-4551
▁ignor	-4552
▁input	-4553
▁malay	-4554
▁minor	-4555
▁mouth	-4556
▁nepal	-4557
▁repla	-4558
▁skill	-4559
▁syria	-4560
▁tells	-4561
▁tests	-4562
▁thats	-4563
▁tight	-4564
▁valid	-4565
▁virus	-4566
▁worry	-4567
▁youth	-4568
eration	-4569
raction	-4570
▁anyway	-4571
▁arabia	-4572
▁artist	-4573
▁behave	-4574
▁behavi	-4575
▁bigger	-4576
▁bodies	-4577
▁border	-4578
▁broken	-4579
▁camera	-4580
▁cigare	-4581
▁extent	-4582
▁fields	-4583
▁finish	-4584
▁forget	-4585
▁fought	-4586
▁galaxy	-4587
▁guilty	-4588
▁kerala	-4589
▁levels	-4590
▁offers	-4591
▁overse	-4592
▁owners	-4593
▁poison	-4594
▁potter	-4595
▁region	-4596
▁scored	-4597
▁server	-4598
▁spouse	-4599
▁winter	-4600
▁academy	-4601
▁appears	-4602
▁banking	-4603
▁biotech	-4604
▁clients	-4605
▁couldnt	-4606
▁easiest	-4607
▁feature	-4608
▁females	-4609
▁germans	-4610
▁illness	-4611
▁include	-4612
▁journal	-4613
▁nigeria	-4614
▁organic	-4615
▁players	-4616
▁routine	-4617
▁sitting	-4618
▁smarter	-4619
▁storage	-4620
▁surface	-4621
▁turning	-4622
forcement	-4623
▁abortion	-4624
▁birthday	-4625
▁comments	-4626
▁document	-4627
▁entrance	-4628
▁hydrogen	-4629
▁included	-4630
▁mentally	-4631
▁particip	-4632
▁partners	-4633
▁patients	-4634
▁provided	-4635
▁provides	-4636
▁rejected	-4637
▁russians	-4638
▁soldiers	-4639
▁strength	-4640
▁terrible	-4641
▁theories	-4642
▁analytics	-4643
▁anonymous	-4644
▁beginners	-4645
▁concerned	-4646
▁emotional	-4647
▁hollywood	-4648
▁mechanics	-4649
▁mechanism	-4650
▁published	-4651
▁terrorism	-4652
▁associated	-4653
▁contribute	-4654
▁javascript	-4655
▁operations	-4656
▁republican	-4657
▁smartphone	-4658
▁examination	-4659
▁perspective	-4660
▁traditional	-4661
▁independence	-4662
25	-4663
af	-4664
hu	-4665
mc	-4666
ok	-4667
rt	-4668
ads	-4669
ael	-4670
alu	-4671
ami	-4672
asp	-4673
bet	-4674
gia	-4675
isc	-4676
ita	-4677
jab	-4678
jee	-4679
lig	-4680
mas	-4681
nes	-4682
▁45	-4683
▁cc	-4684
▁ct	-4685
▁gh	-4686
▁ml	-4687
▁na	-4688
ania	-4689
chen	-4690
ford	-4691
iday	-4692
irty	-4693
more	-4694
ocol	-4695
opal	-4696
outs	-4697
reci	-4698
year	-4699
▁ded	-4700
▁dry	-4701
▁gap	-4702
▁gur	-4703
▁idi	-4704
▁jet	-4705
▁lap	-4706
▁mas	-4707
▁mun	-4708
▁oce	-4709
▁php	-4710
▁sna	-4711
▁tai	-4712
adesh	-4713
agers	-4714
asion	-4715
build	-4716
celer	-4717
chain	-4718
enger	-4719
ening	-4720
field	-4721
grade	-4722
ilies	-4723
orrow	-4724
ounce	-4725
▁2019	-4726
▁adam	-4727
▁alex	-4728
▁arri	-4729
▁bott	-4730
▁cgpa	-4731
▁clin	-4732
▁cris	-4733
▁dict	-4734
▁died	-4735
▁diss	-4736
▁fill	-4737
▁gave	-4738
▁gods	-4739
▁mode	-4740
▁navy	-4741
▁nurs	-4742
▁pure	-4743
▁rail	-4744
▁shar	-4745
▁spin	-4746
▁spot	-4747
▁stan	-4748
▁whom	-4749
▁wise	-4750
charge	-4751
enture	-4752
ession	-4753
iation	-4754
urally	-4755
▁antis	-4756
▁birds	-4757
▁boost	-4758
▁click	-4759
▁cloth	-4760
▁faced	-4761
▁goods	-4762
▁hyper	-4763
▁incom	-4764
▁inner	-4765
▁innov	-4766
▁irish	-4767
▁irrit	-4768
▁kinds	-4769
▁latin	-4770
▁magaz	-4771
▁match	-4772
▁memor	-4773
▁murde	-4774
▁neuro	-4775
▁paint	-4776
▁paral	-4777
▁relev	-4778
▁remed	-4779
▁reply	-4780
▁scand	-4781
▁slave	-4782
▁title	-4783
▁vegan	-4784
chester	-4785
ensions	-4786
ologist	-4787
▁alumin	-4788
▁assume	-4789
▁babies	-4790
▁couple	-4791
▁divers	-4792
▁dollar	-4793
▁figure	-4794
▁finger	-4795
▁format	-4796
▁franch	-4797
▁hatred	-4798
▁hidden	-4799
▁hiring	-4800
▁insult	-4801
▁passed	-4802
▁pieces	-4803
▁sample	-4804
▁serial	-4805
▁shares	-4806
▁societ	-4807
▁temple	-4808
▁upload	-4809
▁whites	-4810
▁breakup	-4811
▁cameras	-4812
▁consequ	-4813
▁cooking	-4814
▁corrupt	-4815
▁decided	-4816
▁deposit	-4817
▁drawing	-4818
▁federal	-4819
▁fitness	-4820
▁florida	-4821
▁initial	-4822
▁meeting	-4823
▁obvious	-4824
▁passing	-4825
▁patient	-4826
▁predict	-4827
▁promote	-4828
▁reduced	-4829
▁sending	-4830
▁weather	-4831
▁baseball	-4832
▁brothers	-4833
▁conflict	-4834
▁creating	-4835
▁database	-4836
▁decrease	-4837
▁eligible	-4838
▁followed	-4839
▁friendly	-4840
▁medicine	-4841
▁obsessed	-4842
▁painting	-4843
▁possibly	-4844
▁rational	-4845
▁released	-4846
▁resident	-4847
▁resource	-4848
▁someones	-4849
▁syllabus	-4850
▁whenever	-4851
▁beginning	-4852
▁ecommerce	-4853
▁electrons	-4854
▁embarrass	-4855
▁entertain	-4856
▁everybody	-4857
▁feminists	-4858
▁operating	-4859
▁reference	-4860
▁scientist	-4861
▁seriously	-4862
▁traveling	-4863
▁australian	-4864
▁bangladesh	-4865
▁department	-4866
▁employment	-4867
▁industrial	-4868
▁meditation	-4869
▁personally	-4870
▁philosophy	-4871
▁politician	-4872
▁propaganda	-4873
▁strategies	-4874
▁supporters	-4875
▁washington	-4876
▁experiences	-4877
▁differentiate	-4878
▁cryptocurrency	-4879
80	-4880
kn	-4881
ti	-4882
apt	-4883
box	-4884
bra	-4885
cos	-4886
hum	-4887
ife	-4888
irm	-4889
met	-4890
omy	-4891
pet	-4892
rad	-4893
top	-4894
une	-4895
vor	-4896
▁75	-4897
▁ak	-4898
▁bs	-4899
▁iv	-4900
▁kg	-4901
▁kh	-4902
▁ll	-4903
▁mc	-4904
abul	-4905
cope	-4906
fare	-4907
iced	-4908
idal	-4909
lder	-4910
life	-4911
mark	-4912
omin	-4913
roph	-4914
uals	-4915
▁alk	-4916
▁ath	-4917
▁dar	-4918
▁din	-4919
▁fet	-4920
▁gri	-4921
▁loo	-4922
▁nic	-4923
▁pac	-4924
▁saw	-4925
▁sri	-4926
▁tes	-4927
▁tin	-4928
▁tut	-4929
▁unc	-4930
▁vag	-4931
alous	-4932
atell	-4933
eding	-4934
eness	-4935
heast	-4936
icing	-4937
itors	-4938
iving	-4939
night	-4940
otics	-4941
paign	-4942
tical	-4943
▁acne	-4944
▁alle	-4945
▁blow	-4946
▁bull	-4947
▁club	-4948
▁coin	-4949
▁debt	-4950
▁dish	-4951
▁door	-4952
▁dram	-4953
▁excl	-4954
▁fict	-4955
▁flip	-4956
▁goal	-4957
▁hope	-4958
▁joke	-4959
▁khan	-4960
▁knew	-4961
▁lazy	-4962
▁lots	-4963
▁mail	-4964
▁mans	-4965
▁meat	-4966
▁nazi	-4967
▁pand	-4968
▁pant	-4969
▁pron	-4970
▁push	-4971
▁shad	-4972
▁snow	-4973
▁solo	-4974
▁suit	-4975
▁thin	-4976
▁tour	-4977
▁wire	-4978
▁zeal	-4979
americ	-4980
ashtra	-4981
enders	-4982
ipment	-4983
▁added	-4984
▁aspir	-4985
▁award	-4986
▁bread	-4987
▁caste	-4988
▁chain	-4989
▁champ	-4990
▁circu	-4991
▁creep	-4992
▁error	-4993
▁films	-4994
▁fixed	-4995
▁helps	-4996
▁laugh	-4997
▁magic	-4998
▁manga	-4999
▁phase	-5000
▁plans	-5001
▁pleas	-5002
▁regul	-5003
▁satis	-5004
▁seats	-5005
▁simpl	-5006
▁spect	-5007
▁surve	-5008
▁therm	-5009
▁toile	-5010
abulary	-5011
osition	-5012
▁adults	-5013
▁agency	-5014
▁arabic	-5015
▁asians	-5016
▁boards	-5017
▁brands	-5018
▁butter	-5019
▁caught	-5020
▁claims	-5021
▁crisis	-5022
▁decent	-5023
▁defeat	-5024
▁dishes	-5025
▁disney	-5026
▁flying	-5027
▁gaming	-5028
▁golden	-5029
▁grades	-5030
▁guitar	-5031
▁harass	-5032
▁ignore	-5033
▁images	-5034
▁indias	-5035
▁inspir	-5036
▁larger	-5037
▁mexico	-5038
▁mining	-5039
▁mongol	-5040
▁mutual	-5041
▁placed	-5042
▁planes	-5043
▁silver	-5044
▁starts	-5045
▁stocks	-5046
▁taiwan	-5047
▁territ	-5048
▁thinks	-5049
▁unable	-5050
▁victim	-5051
cription	-5052
▁acceler	-5053
▁actions	-5054
▁airport	-5055
▁anymore	-5056
▁article	-5057
▁aspects	-5058
▁bipolar	-5059
▁degrees	-5060
▁diploma	-5061
▁falling	-5062
▁forgive	-5063
▁founded	-5064
▁funding	-5065
▁jackson	-5066
▁learned	-5067
▁library	-5068
▁license	-5069
▁passion	-5070
▁protein	-5071
▁radical	-5072
▁records	-5073
▁reverse	-5074
▁richard	-5075
▁sharing	-5076
▁smaller	-5077
▁solving	-5078
▁stopped	-5079
▁teenage	-5080
▁zealand	-5081
▁annoying	-5082
▁assembly	-5083
▁branches	-5084
▁campaign	-5085
▁choosing	-5086
▁creation	-5087
▁designed	-5088
▁lifetime	-5089
▁millions	-5090
▁minister	-5091
▁minority	-5092
▁overseas	-5093
▁policies	-5094
▁properly	-5095
▁received	-5096
▁shopping	-5097
▁teaching	-5098
▁vacation	-5099
▁algorithm	-5100
▁apartment	-5101
▁bachelors	-5102
▁decisions	-5103
▁frequency	-5104
▁interpret	-5105
▁particles	-5106
▁shortterm	-5107
▁solutions	-5108
▁travelers	-5109
▁workplace	-5110
▁accounting	-5111
▁automation	-5112
▁basketball	-5113
▁biological	-5114
▁blockchain	-5115
▁friendship	-5116
▁processing	-5117
▁underrated	-5118
▁vegetarian	-5119
▁vietnamese	-5120
▁vocabulary	-5121
▁comfortable	-5122
▁emotionally	-5123
▁immigration	-5124
▁maharashtra	-5125
▁possibility	-5126
▁reservation	-5127
▁distribution	-5128
▁palestinians	-5129
12	-5130
35	-5131
dy	-5132
fa	-5133
gl	-5134
gu	-5135
pi	-5136
ato	-5137
bec	-5138
bes	-5139
ena	-5140
ery	-5141
fit	-5142
iat	-5143
lab	-5144
mad	-5145
nel	-5146
rog	-5147
sey	-5148
sis	-5149
the	-5150
▁ah	-5151
▁nc	-5152
▁ni	-5153
▁pd	-5154
▁va	-5155
▁xi	-5156
anna	-5157
athy	-5158
bric	-5159
ccer	-5160
cest	-5161
gged	-5162
gram	-5163
greg	-5164
iano	-5165
icon	-5166
irts	-5167
lets	-5168
miri	-5169
ndra	-5170
opho	-5171
pass	-5172
pool	-5173
roat	-5174
ront	-5175
ston	-5176
wash	-5177
yond	-5178
▁alb	-5179
▁cel	-5180
▁fer	-5181
▁guj	-5182
▁hen	-5183
▁hun	-5184
▁ire	-5185
▁kal	-5186
▁les	-5187
▁lip	-5188
▁moo	-5189
▁ren	-5190
▁ric	-5191
▁tcs	-5192
▁uns	-5193
▁wik	-5194
ables	-5195
angle	-5196
attoo	-5197
berry	-5198
cules	-5199
ented	-5200
erson	-5201
erved	-5202
namic	-5203
ocent	-5204
ocity	-5205
rable	-5206
worth	-5207
▁auto	-5208
▁bond	-5209
▁chap	-5210
▁chic	-5211
▁desk	-5212
▁gang	-5213
▁inde	-5214
▁loud	-5215
▁mock	-5216
▁mort	-5217
▁nadu	-5218
▁nare	-5219
▁pier	-5220
▁scar	-5221
▁seek	-5222
▁sept	-5223
▁stal	-5224
▁subt	-5225
▁unem	-5226
▁vacc	-5227
▁warm	-5228
▁wine	-5229
encies	-5230
nology	-5231
stream	-5232
ternal	-5233
▁adopt	-5234
▁allen	-5235
▁buddh	-5236
▁catal	-5237
▁dirty	-5238
▁effic	-5239
▁files	-5240
▁franc	-5241
▁frank	-5242
▁impos	-5243
▁jeans	-5244
▁knock	-5245
▁knows	-5246
▁leads	-5247
▁links	-5248
▁linux	-5249
▁lying	-5250
▁merch	-5251
▁parag	-5252
▁proud	-5253
▁rifle	-5254
▁royal	-5255
▁shock	-5256
▁shown	-5257
▁stars	-5258
▁sweet	-5259
▁trees	-5260
▁trend	-5261
▁waves	-5262
▁weigh	-5263
▁wrest	-5264
rencies	-5265
riction	-5266
utation	-5267
working	-5268
▁adjust	-5269
▁assass	-5270
▁astron	-5271
▁attorn	-5272
▁beyond	-5273
▁bitsat	-5274
▁blacks	-5275
▁compla	-5276
▁counse	-5277
▁discri	-5278
▁emails	-5279
▁exists	-5280
▁explan	-5281
▁fabric	-5282
▁facing	-5283
▁factor	-5284
▁forgot	-5285
▁ground	-5286
▁homose	-5287
▁inject	-5288
▁jaipur	-5289
▁joseph	-5290
▁lawyer	-5291
▁lowest	-5292
▁martin	-5293
▁models	-5294
▁naruto	-5295
▁orange	-5296
▁pretty	-5297
▁racism	-5298
▁robert	-5299
▁satell	-5300
▁shower	-5301
▁simult	-5302
▁skinny	-5303
▁soccer	-5304
▁sounds	-5305
▁spring	-5306
▁studio	-5307
▁suffer	-5308
▁tattoo	-5309
▁themes	-5310
▁theore	-5311
▁throat	-5312
▁toilet	-5313
▁trends	-5314
▁typing	-5315
▁valley	-5316
ographic	-5317
▁airline	-5318
▁brought	-5319
▁clearly	-5320
▁command	-5321
▁complic	-5322
▁compuls	-5323
▁deserve	-5324
▁earning	-5325
▁greater	-5326
▁impress	-5327
▁ireland	-5328
▁letters	-5329
▁michael	-5330
▁monthly	-5331
▁motorcy	-5332
▁nursing	-5333
▁paralle	-5334
▁revenue	-5335
▁secular	-5336
▁stephen	-5337
▁strange	-5338
▁succeed	-5339
▁thrones	-5340
▁tickets	-5341
▁virtual	-5342
▁vitamin	-5343
▁watched	-5344
▁wealthy	-5345
▁worried	-5346
▁airlines	-5347
▁clothing	-5348
▁colonial	-5349
▁concepts	-5350
▁contacts	-5351
▁creative	-5352
▁critical	-5353
▁designer	-5354
▁director	-5355
▁distingu	-5356
▁families	-5357
▁genocide	-5358
▁hinduism	-5359
▁inferior	-5360
▁invasion	-5361
▁kashmiri	-5362
▁narendra	-5363
▁swimming	-5364
▁teenager	-5365
▁unemploy	-5366
▁velocity	-5367
ifications	-5368
▁advantage	-5369
▁advertise	-5370
▁behaviour	-5371
▁celebrity	-5372
▁certified	-5373
▁classical	-5374
▁compounds	-5375
▁documents	-5376
▁equipment	-5377
▁executive	-5378
▁exercises	-5379
▁fictional	-5380
▁formation	-5381
▁hospitals	-5382
▁increased	-5383
▁interests	-5384
▁professor	-5385
▁qualified	-5386
▁thousands	-5387
▁wordpress	-5388
▁affordable	-5389
▁beneficial	-5390
▁industries	-5391
▁throughout	-5392
▁competition	-5393
▁competitive	-5394
▁photography	-5395
▁restaurants	-5396
▁alternatives	-5397
▁consequences	-5398
▁evolutionary	-5399
▁neighborhood	-5400
▁organization	-5401
40	-5402
aj	-5403
dr	-5404
sq	-5405
cet	-5406
cil	-5407
col	-5408
ela	-5409
ini	-5410
ius	-5411
izz	-5412
jac	-5413
lla	-5414
net	-5415
obe	-5416
oca	-5417
oon	-5418
pat	-5419
sec	-5420
sin	-5421
tte	-5422
ubs	-5423
uts	-5424
▁28	-5425
▁32	-5426
▁34	-5427
▁ee	-5428
▁ji	-5429
▁ku	-5430
▁ts	-5431
ache	-5432
aked	-5433
aled	-5434
anta	-5435
aper	-5436
cipl	-5437
gaon	-5438
girl	-5439
iant	-5440
illy	-5441
imal	-5442
inct	-5443
iped	-5444
olve	-5445
onda	-5446
oted	-5447
quit	-5448
real	-5449
vest	-5450
what	-5451
▁199	-5452
▁apt	-5453
▁arr	-5454
▁bba	-5455
▁bio	-5456
▁cas	-5457
▁cha	-5458
▁ens	-5459
▁era	-5460
▁fbi	-5461
▁flo	-5462
▁ham	-5463
▁inj	-5464
▁jam	-5465
▁kar	-5466
▁lam	-5467
▁luc	-5468
▁mam	-5469
▁mys	-5470
▁nda	-5471
▁pim	-5472
▁pit	-5473
▁pow	-5474
▁pul	-5475
▁sap	-5476
▁sql	-5477
▁sue	-5478
▁tay	-5479
▁tea	-5480
▁tig	-5481
▁tip	-5482
▁tum	-5483
▁uae	-5484
▁vib	-5485
adays	-5486
arily	-5487
hetic	-5488
inste	-5489
minal	-5490
power	-5491
raine	-5492
rolog	-5493
▁boot	-5494
▁dial	-5495
▁dual	-5496
▁duty	-5497
▁ears	-5498
▁eggs	-5499
▁firm	-5500
▁flex	-5501
▁gard	-5502
▁gear	-5503
▁heav	-5504
▁hong	-5505
▁indo	-5506
▁kong	-5507
▁lady	-5508
▁lump	-5509
▁mang	-5510
▁mens	-5511
▁mile	-5512
▁obam	-5513
▁phen	-5514
▁refe	-5515
▁roll	-5516
▁rupe	-5517
▁sale	-5518
▁scam	-5519
▁seed	-5520
▁ship	-5521
▁shiv	-5522
▁ster	-5523
▁tier	-5524
▁uber	-5525
▁wash	-5526
▁wave	-5527
▁zone	-5528
opathy	-5529
orders	-5530
ounder	-5531
phones	-5532
ruggle	-5533
▁10000	-5534
▁adapt	-5535
▁admit	-5536
▁advis	-5537
▁ahmed	-5538
▁allah	-5539
▁aside	-5540
▁audio	-5541
▁breed	-5542
▁broad	-5543
▁cardi	-5544
▁coast	-5545
▁coins	-5546
▁crash	-5547
▁cyber	-5548
▁debit	-5549
▁excel	-5550
▁genet	-5551
▁goals	-5552
▁guide	-5553
▁illeg	-5554
▁intro	-5555
▁jewel	-5556
▁juice	-5557
▁loyal	-5558
▁lunch	-5559
▁march	-5560
▁mixed	-5561
▁moved	-5562
▁multi	-5563
▁named	-5564
▁patri	-5565
▁piano	-5566
▁polar	-5567
▁puppy	-5568
▁risks	-5569
▁river	-5570
▁saved	-5571
▁steal	-5572
▁stere	-5573
▁stone	-5574
▁tesla	-5575
▁trave	-5576
▁turks	-5577
▁twice	-5578
istical	-5579
oration	-5580
▁ancest	-5581
▁atmosp	-5582
▁beings	-5583
▁boxing	-5584
▁bullet	-5585
▁button	-5586
▁chrome	-5587
▁circle	-5588
▁colors	-5589
▁diabet	-5590
▁ending	-5591
▁engage	-5592
▁equity	-5593
▁export	-5594
▁facial	-5595
▁facult	-5596
▁funded	-5597
▁george	-5598
▁highly	-5599
▁incest	-5600
▁island	-5601
▁kidney	-5602
▁limits	-5603
▁marath	-5604
▁medium	-5605
▁metall	-5606
▁notice	-5607
▁physic	-5608
▁polite	-5609
▁posted	-5610
▁punjab	-5611
▁quebec	-5612
▁rating	-5613
▁remote	-5614
▁rental	-5615
▁replic	-5616
▁sacrif	-5617
▁strike	-5618
▁string	-5619
▁theres	-5620
▁wallet	-5621
▁weapon	-5622
▁womens	-5623
▁worked	-5624
izations	-5625
▁appreci	-5626
▁artists	-5627
▁careers	-5628
▁convent	-5629
▁dealing	-5630
▁disable	-5631
▁eastern	-5632
▁episode	-5633
▁finally	-5634
▁further	-5635
▁grammar	-5636
▁housing	-5637
▁instrum	-5638
▁involve	-5639
▁israeli	-5640
▁jealous	-5641
▁laptops	-5642
▁lawyers	-5643
▁longest	-5644
▁manipal	-5645
▁parties	-5646
▁plastic	-5647
▁primary	-5648
▁privacy	-5649
▁quorans	-5650
▁reflect	-5651
▁removal	-5652
▁removed	-5653
▁request	-5654
▁romance	-5655
▁slavery	-5656
▁somehow	-5657
▁staying	-5658
▁visible	-5659
▁walking	-5660
▁wanting	-5661
▁warfare	-5662
▁workout	-5663
▁arrested	-5664
▁cheapest	-5665
▁cultural	-5666
▁cultures	-5667
▁disaster	-5668
▁entering	-5669
▁entirely	-5670
▁equality	-5671
▁graphics	-5672
▁hardware	-5673
▁husbands	-5674
▁infinity	-5675
▁interior	-5676
▁investig	-5677
▁keyboard	-5678
▁linkedin	-5679
▁magnetic	-5680
▁managers	-5681
▁memories	-5682
▁nowadays	-5683
▁official	-5684
▁ordinary	-5685
▁psychiat	-5686
▁scenario	-5687
▁schedule	-5688
▁secretly	-5689
▁separate	-5690
▁standing	-5691
▁struggle	-5692
▁transact	-5693
▁variable	-5694
▁weekends	-5695
▁accepting	-5696
▁amendment	-5697
▁awareness	-5698
▁basically	-5699
▁champions	-5700
▁childhood	-5701
▁cognitive	-5702
▁committed	-5703
▁communist	-5704
▁connected	-5705
▁customers	-5706
▁diversity	-5707
▁franchise	-5708
▁intellect	-5709
▁mentioned	-5710
▁naturally	-5711
▁objective	-5712
▁platforms	-5713
▁processor	-5714
▁protected	-5715
▁qualities	-5716
▁religions	-5717
▁reporting	-5718
▁satellite	-5719
▁simultane	-5720
▁standards	-5721
▁therapist	-5722
▁undergrad	-5723
▁consulting	-5724
▁dimensions	-5725
▁eventually	-5726
▁impossible	-5727
▁percentile	-5728
▁practicing	-5729
▁differently	-5730
▁educational	-5731
▁improvement	-5732
▁manufacture	-5733
▁permanently	-5734
▁translation	-5735
▁agricultural	-5736
▁differential	-5737
▁entrepreneur	-5738
▁organisation	-5739
▁biotechnology	-5740
▁certification	-5741
dp	-5742
hd	-5743
iy	-5744
nc	-5745
po	-5746
ui	-5747
zu	-5748
boy	-5749
cts	-5750
ded	-5751
dra	-5752
ext	-5753
fra	-5754
gat	-5755
hem	-5756
ief	-5757
jun	-5758
nis	-5759
now	-5760
ops	-5761
pan	-5762
ros	-5763
uct	-5764
ugu	-5765
▁ds	-5766
▁km	-5767
▁mr	-5768
▁ns	-5769
▁vp	-5770
0000	-5771
aped	-5772
bell	-5773
bing	-5774
born	-5775
bour	-5776
cium	-5777
desh	-5778
elts	-5779
emit	-5780
ener	-5781
ests	-5782
gust	-5783
hent	-5784
ints	-5785
isco	-5786
izes	-5787
lers	-5788
lock	-5789
ogen	-5790
olen	-5791
oler	-5792
omas	-5793
opia	-5794
oses	-5795
part	-5796
rast	-5797
rian	-5798
rish	-5799
rors	-5800
rupt	-5801
sial	-5802
sqrt	-5803
stal	-5804
ulum	-5805
uran	-5806
wide	-5807
▁911	-5808
▁ans	-5809
▁bpd	-5810
▁bru	-5811
▁enh	-5812
▁gig	-5813
▁gpa	-5814
▁iim	-5815
▁ipl	-5816
▁jim	-5817
▁jin	-5818
▁lee	-5819
▁lev	-5820
▁lou	-5821
▁nyc	-5822
▁ott	-5823
▁phr	-5824
▁pic	-5825
▁rab	-5826
▁raw	-5827
▁sab	-5828
▁sib	-5829
▁sid	-5830
▁sor	-5831
▁spi	-5832
▁ton	-5833
▁toy	-5834
▁wif	-5835
▁wis	-5836
aches	-5837
allow	-5838
andon	-5839
antly	-5840
break	-5841
eline	-5842
gredi	-5843
iform	-5844
inite	-5845
ipped	-5846
itzer	-5847
kings	-5848
obile	-5849
ocate	-5850
ophob	-5851
ordon	-5852
orter	-5853
outer	-5854
oxide	-5855
ppers	-5856
prise	-5857
ruits	-5858
secut	-5859
stain	-5860
▁2015	-5861
▁alph	-5862
▁bare	-5863
▁beam	-5864
▁biom	-5865
▁cake	-5866
▁cens	-5867
▁crow	-5868
▁dick	-5869
▁edge	-5870
▁ejac	-5871
▁elon	-5872
▁exit	-5873
▁figh	-5874
▁font	-5875
▁gall	-5876
▁golf	-5877
▁holy	-5878
▁idol	-5879
▁impe	-5880
▁june	-5881
▁kann	-5882
▁lgbt	-5883
▁mont	-5884
▁musk	-5885
▁nerv	-5886
▁onto	-5887
▁orth	-5888
▁outd	-5889
▁peak	-5890
▁pill	-5891
▁pink	-5892
▁prec	-5893
▁rene	-5894
▁rose	-5895
▁sexy	-5896
▁soil	-5897
▁sore	-5898
▁spac	-5899
▁sper	-5900
▁tata	-5901
▁tort	-5902
▁tree	-5903
▁trig	-5904
▁ugly	-5905
▁unex	-5906
▁util	-5907
▁valu	-5908
▁vast	-5909
▁vice	-5910
▁warr	-5911
angest	-5912
bridge	-5913
isters	-5914
ocaust	-5915
ometer	-5916
porary	-5917
ronics	-5918
tering	-5919
ulated	-5920
ushing	-5921
▁ahead	-5922
▁atoms	-5923
▁bihar	-5924
▁bonds	-5925
▁bored	-5926
▁brave	-5927
▁chron	-5928
▁clubs	-5929
▁colum	-5930
▁concl	-5931
▁conqu	-5932
▁costs	-5933
▁dates	-5934
▁delay	-5935
▁demon	-5936
▁divor	-5937
▁drunk	-5938
▁dutch	-5939
▁enemy	-5940
▁evalu	-5941
▁flame	-5942
▁greek	-5943
▁hypot	-5944
▁ielts	-5945
▁incor	-5946
▁jokes	-5947
▁laser	-5948
▁legit	-5949
▁lived	-5950
▁males	-5951
▁merit	-5952
▁moves	-5953
▁nazis	-5954
▁numer	-5955
▁ocean	-5956
▁paris	-5957
▁paytm	-5958
▁penet	-5959
▁peter	-5960
▁pills	-5961
▁plays	-5962
▁prize	-5963
▁quran	-5964
▁ratio	-5965
▁recon	-5966
▁redmi	-5967
▁route	-5968
▁scene	-5969
▁smoke	-5970
▁spots	-5971
▁steam	-5972
▁surge	-5973
▁teens	-5974
▁thick	-5975
▁tooth	-5976
▁tutor	-5977
▁upper	-5978
▁upset	-5979
▁urban	-5980
▁vegas	-5981
▁willi	-5982
achment	-5983
ibility	-5984
inating	-5985
stances	-5986
▁annual	-5987
▁autism	-5988
▁boring	-5989
▁bottom	-5990
▁bought	-5991
▁debate	-5992
▁effort	-5993
▁filled	-5994
▁forest	-5995
▁gordon	-5996
▁grocer	-5997
▁harder	-5998
▁hostel	-5999
▁hurric	-6000
▁justin	-6001
▁lesser	-6002
▁loving	-6003
▁marine	-6004
▁miller	-6005
▁minute	-6006
▁refuse	-6007
▁repeat	-6008
▁retain	-6009
▁robots	-6010
▁scores	-6011
▁secure	-6012
▁shadow	-6013
▁signal	-6014
▁slowly	-6015
▁stolen	-6016
▁toront	-6017
▁triple	-6018
▁womans	-6019
▁worker	-6020
▁abandon	-6021
▁attacks	-6022
▁authent	-6023
▁becomes	-6024
▁calcium	-6025
▁causing	-6026
▁cheaper	-6027
▁cheated	-6028
▁climate	-6029
▁combine	-6030
▁context	-6031
▁damaged	-6032
▁density	-6033
▁dentist	-6034
▁diamond	-6035
▁disgust	-6036
▁dislike	-6037
▁display	-6038
▁dropped	-6039
▁earlier	-6040
▁encoura	-6041
▁factory	-6042
▁glasses	-6043
▁gurgaon	-6044
▁hearing	-6045
▁hurting	-6046
▁ingredi	-6047
▁intoler	-6048
▁jewelry	-6049
▁keeping	-6050
▁landing	-6051
▁moments	-6052
▁nervous	-6053
▁offline	-6054
▁opposed	-6055
▁outcome	-6056
▁proport	-6057
▁revenge	-6058
▁silicon	-6059
▁sustain	-6060
▁totally	-6061
▁uniform	-6062
▁victims	-6063
▁weekend	-6064
abilities	-6065
▁aptitude	-6066
▁attitude	-6067
▁attorney	-6068
▁audience	-6069
▁channels	-6070
▁checking	-6071
▁confused	-6072
▁december	-6073
▁discount	-6074
▁discover	-6075
▁finished	-6076
▁mountain	-6077
▁optional	-6078
▁parallel	-6079
▁particle	-6080
▁pharmacy	-6081
▁prepared	-6082
▁refugees	-6083
▁response	-6084
▁socially	-6085
▁spectrum	-6086
▁stations	-6087
▁suicidal	-6088
▁addiction	-6089
▁affecting	-6090
▁assistant	-6091
▁authority	-6092
▁celebrate	-6093
▁container	-6094
▁copyright	-6095
▁destroyed	-6096
▁diagnosed	-6097
▁holocaust	-6098
▁household	-6099
▁improving	-6100
▁invention	-6101
▁investors	-6102
▁listening	-6103
▁mandatory	-6104
▁molecules	-6105
▁motivated	-6106
▁overrated	-6107
▁pollution	-6108
▁practices	-6109
▁responsib	-6110
▁spiritual	-6111
▁strangest	-6112
▁territory	-6113
▁automobile	-6114
▁components	-6115
▁consultant	-6116
▁efficiency	-6117
▁experiment	-6118
▁expression	-6119
▁healthcare	-6120
▁integrated	-6121
▁manchester	-6122
▁permission	-6123
▁presidency	-6124
▁programmer	-6125
▁properties	-6126
▁registered	-6127
▁relatively	-6128
▁sufficient	-6129
▁communities	-6130
▁corporation	-6131
▁explanation	-6132
▁financially	-6133
▁indonesians	-6134
▁investments	-6135
▁participate	-6136
▁civilization	-6137
▁manufactured	-6138
▁mathematical	-6139
▁registration	-6140
▁circumstances	-6141
19	-6142
32	-6143
55	-6144
70	-6145
bl	-6146
bn	-6147
fc	-6148
py	-6149
tr	-6150
vc	-6151
yr	-6152
zz	-6153
ada	-6154
aff	-6155
ago	-6156
aph	-6157
cin	-6158
enn	-6159
era	-6160
fly	-6161
for	-6162
iab	-6163
iff	-6164
iju	-6165
lax	-6166
lit	-6167
ned	-6168
ora	-6169
ran	-6170
roc	-6171
sex	-6172
tic	-6173
ulk	-6174
urg	-6175
▁39	-6176
▁99	-6177
▁bf	-6178
▁dv	-6179
▁eb	-6180
▁fi	-6181
▁kv	-6182
▁mm	-6183
▁nu	-6184
▁yr	-6185
agar	-6186
cell	-6187
cend	-6188
cour	-6189
gage	-6190
gans	-6191
icip	-6192
last	-6193
osys	-6194
othe	-6195
rain	-6196
resp	-6197
stru	-6198
tles	-6199
ttes	-6200
xide	-6201
▁awk	-6202
▁bds	-6203
▁bid	-6204
▁bom	-6205
▁bor	-6206
▁bun	-6207
▁cum	-6208
▁dna	-6209
▁dos	-6210
▁dum	-6211
▁gal	-6212
▁han	-6213
▁ies	-6214
▁ket	-6215
▁kil	-6216
▁llb	-6217
▁lux	-6218
▁mes	-6219
▁mol	-6220
▁mph	-6221
▁nba	-6222
▁nep	-6223
▁nra	-6224
▁ocd	-6225
▁osc	-6226
▁pad	-6227
▁rod	-6228
▁sne	-6229
▁spy	-6230
▁srm	-6231
▁sul	-6232
▁tap	-6233
▁tun	-6234
▁twe	-6235
▁yog	-6236
ading	-6237
ament	-6238
archy	-6239
backs	-6240
enses	-6241
iders	-6242
ingly	-6243
inter	-6244
isine	-6245
itate	-6246
kemon	-6247
known	-6248
olved	-6249
orate	-6250
oting	-6251
paper	-6252
rayed	-6253
verty	-6254
▁2010	-6255
▁bear	-6256
▁bhag	-6257
▁boat	-6258
▁buck	-6259
▁cous	-6260
▁empt	-6261
▁fate	-6262
▁fert	-6263
▁furn	-6264
▁gulf	-6265
▁heal	-6266
▁horm	-6267
▁hung	-6268
▁jain	-6269
▁jeff	-6270
▁kiit	-6271
▁lets	-6272
▁lone	-6273
▁meal	-6274
▁mega	-6275
▁migr	-6276
▁mild	-6277
▁nasa	-6278
▁pool	-6279
▁rare	-6280
▁rely	-6281
▁reve	-6282
▁rome	-6283
▁sarc	-6284
▁shes	-6285
▁soul	-6286
▁stru	-6287
▁surr	-6288
▁task	-6289
▁tiss	-6290
▁tone	-6291
▁tong	-6292
▁trek	-6293
▁unhe	-6294
▁vary	-6295
▁wing	-6296
ancing	-6297
arians	-6298
ijuana	-6299
inking	-6300
ipping	-6301
lation	-6302
master	-6303
namics	-6304
rishna	-6305
▁adobe	-6306
▁antim	-6307
▁argue	-6308
▁argum	-6309
▁armed	-6310
▁audit	-6311
▁batch	-6312
▁berke	-6313
▁cabin	-6314
▁chair	-6315
▁chand	-6316
▁charl	-6317
▁codes	-6318
▁comic	-6319
▁gmail	-6320
▁hates	-6321
▁heads	-6322
▁hired	-6323
▁honda	-6324
▁horse	-6325
▁hydro	-6326
▁kings	-6327
▁lakhs	-6328
▁maybe	-6329
▁muham	-6330
▁noida	-6331
▁notes	-6332
▁ottom	-6333
▁overw	-6334
▁owned	-6335
▁pages	-6336
▁penal	-6337
▁roles	-6338
▁sauce	-6339
▁schiz	-6340
▁screw	-6341
▁setup	-6342
▁shape	-6343
▁shirt	-6344
▁sikhs	-6345
▁silly	-6346
▁stret	-6347
▁sweat	-6348
▁theme	-6349
▁tired	-6350
▁walls	-6351
▁wanna	-6352
▁yours	-6353
agnetic	-6354
amental	-6355
cipline	-6356
instein	-6357
itarian	-6358
iveness	-6359
versial	-6360
writing	-6361
xuality	-6362
yearold	-6363
▁accent	-6364
▁advise	-6365
▁aliens	-6366
▁allies	-6367
▁apolog	-6368
▁barack	-6369
▁berlin	-6370
▁bridge	-6371
▁bright	-6372
▁circul	-6373
▁closed	-6374
▁closer	-6375
▁comedk	-6376
▁convin	-6377
▁creepy	-6378
▁deploy	-6379
▁desert	-6380
▁digest	-6381
▁driven	-6382
▁ethics	-6383
▁excess	-6384
▁fruits	-6385
▁heaven	-6386
▁honest	-6387
▁kindle	-6388
▁lyrics	-6389
▁magnet	-6390
▁metals	-6391
▁myster	-6392
▁oldest	-6393
▁owning	-6394
▁petrol	-6395
▁poland	-6396
▁pounds	-6397
▁quoran	-6398
▁quotes	-6399
▁recipe	-6400
▁regime	-6401
▁relate	-6402
▁repair	-6403
▁rupees	-6404
▁signed	-6405
▁solved	-6406
▁submit	-6407
▁subsid	-6408
▁talent	-6409
▁taller	-6410
▁thanks	-6411
▁thomas	-6412
▁toward	-6413
▁unless	-6414
▁verify	-6415
▁volume	-6416
▁volunt	-6417
▁wholes	-6418
▁window	-6419
ensation	-6420
ologists	-6421
▁abusive	-6422
▁actress	-6423
▁analyst	-6424
▁appoint	-6425
▁awkward	-6426
▁boiling	-6427
▁calling	-6428
▁carried	-6429
▁carrier	-6430
▁claimed	-6431
▁consume	-6432
▁cutting	-6433
▁dangers	-6434
▁deliver	-6435
▁denmark	-6436
▁desktop	-6437
▁disturb	-6438
▁drivers	-6439
▁elected	-6440
▁enhance	-6441
▁ethical	-6442
▁flowers	-6443
▁focused	-6444
▁genetic	-6445
▁georgia	-6446
▁graphic	-6447
▁gujarat	-6448
▁holding	-6449
▁hunting	-6450
▁infosys	-6451
▁justify	-6452
▁kingdom	-6453
▁kitchen	-6454
▁leading	-6455
▁legends	-6456
▁lessons	-6457
▁located	-6458
▁massive	-6459
▁nucleus	-6460
▁overall	-6461
▁planets	-6462
▁pokemon	-6463
▁poverty	-6464
▁pradesh	-6465
▁pretend	-6466
▁railway	-6467
▁restore	-6468
▁selfish	-6469
▁supreme	-6470
▁swallow	-6471
▁tactics	-6472
▁tension	-6473
▁toronto	-6474
▁tuition	-6475
▁violent	-6476
▁waiting	-6477
▁wasting	-6478
istically	-6479
▁addicted	-6480
▁aluminum	-6481
▁approved	-6482
▁bachelor	-6483
▁beginner	-6484
▁charging	-6485
▁circular	-6486
▁compound	-6487
▁criminal	-6488
▁diabetes	-6489
▁division	-6490
▁episodes	-6491
▁external	-6492
▁homeless	-6493
▁ignorant	-6494
▁integral	-6495
▁mistakes	-6496
▁nitrogen	-6497
▁northern	-6498
▁offering	-6499
▁patterns	-6500
▁peaceful	-6501
▁phenomen	-6502
▁pleasure	-6503
▁purposes	-6504
▁relevant	-6505
▁replaced	-6506
▁restrict	-6507
▁sciences	-6508
▁settings	-6509
▁southern	-6510
▁stanford	-6511
▁stereoty	-6512
▁stronger	-6513
▁superman	-6514
▁tomorrow	-6515
▁weirdest	-6516
▁whatever	-6517
▁ahmedabad	-6518
▁antisemit	-6519
▁canadians	-6520
▁completed	-6521
▁computing	-6522
▁confident	-6523
▁conscious	-6524
▁construct	-6525
▁converted	-6526
▁criticism	-6527
▁daughters	-6528
▁disappear	-6529
▁discharge	-6530
▁extension	-6531
▁geography	-6532
▁happiness	-6533
▁infection	-6534
▁intensity	-6535
▁mangalore	-6536
▁marijuana	-6537
▁operation	-6538
▁processes	-6539
▁programme	-6540
▁prospects	-6541
▁providing	-6542
▁recognize	-6543
▁regularly	-6544
▁rejection	-6545
▁selection	-6546
▁sensitive	-6547
▁societies	-6548
▁spacetime	-6549
▁technique	-6550
▁virginity	-6551
▁worldwide	-6552
▁cigarettes	-6553
▁compulsory	-6554
▁determined	-6555
▁facilities	-6556
▁foreigners	-6557
▁impression	-6558
▁leadership	-6559
▁medication	-6560
▁motorcycle	-6561
▁principles	-6562
▁professors	-6563
▁profitable	-6564
▁proportion	-6565
▁reasonable	-6566
▁regardless	-6567
▁situations	-6568
▁supporting	-6569
▁transcript	-6570
▁citizenship	-6571
▁consumption	-6572
▁counselling	-6573
▁enforcement	-6574
▁fundamental	-6575
▁integration	-6576
▁narcissists	-6577
▁suggestions	-6578
▁consistently	-6579
▁masturbation	-6580
▁similarities	-6581
▁successfully	-6582
▁concentration	-6583
▁psychological	-6584
▁recommendations	-6585
75	-6586
dm	-6587
lr	-6588
nn	-6589
pu	-6590
uk	-6591
va	-6592
bby	-6593
bnb	-6594
cat	-6595
ctr	-6596
die	-6597
edi	-6598
gel	-6599
gue	-6600
ici	-6601
icy	-6602
lix	-6603
mic	-6604
oic	-6605
oke	-6606
ovo	-6607
rah	-6608
ued	-6609
vis	-6610
ysi	-6611
▁29	-6612
▁48	-6613
▁51	-6614
▁52	-6615
▁55	-6616
▁dj	-6617
▁dm	-6618
▁gy	-6619
▁hp	-6620
▁ls	-6621
▁md	-6622
▁ot	-6623
▁rh	-6624
2018	-6625
acle	-6626
agon	-6627
aire	-6628
anol	-6629
ares	-6630
asty	-6631
cape	-6632
comm	-6633
fish	-6634
gium	-6635
hers	-6636
ilia	-6637
inav	-6638
ishn	-6639
itis	-6640
izab	-6641
kers	-6642
lims	-6643
made	-6644
mart	-6645
onia	-6646
oral	-6647
ords	-6648
osen	-6649
roll	-6650
stig	-6651
uary	-6652
unes	-6653
vard	-6654
wing	-6655
▁alt	-6656
▁ash	-6657
▁aws	-6658
▁bah	-6659
▁bms	-6660
▁bts	-6661
▁cet	-6662
▁cpu	-6663
▁dal	-6664
▁dio	-6665
▁fox	-6666
▁goa	-6667
▁htt	-6668
▁iam	-6669
▁iot	-6670
▁jab	-6671
▁jan	-6672
▁jog	-6673
▁jon	-6674
▁lag	-6675
▁mao	-6676
▁nfl	-6677
▁nik	-6678
▁nur	-6679
▁ont	-6680
▁pin	-6681
▁pod	-6682
▁poo	-6683
▁roi	-6684
▁rum	-6685
▁sed	-6686
▁tyr	-6687
▁und	-6688
▁unw	-6689
▁usd	-6690
▁van	-6691
▁ves	-6692
▁vul	-6693
abhar	-6694
althy	-6695
bling	-6696
chron	-6697
eared	-6698
eries	-6699
erman	-6700
hesis	-6701
hmins	-6702
human	-6703
ieval	-6704
indra	-6705
itles	-6706
iture	-6707
llion	-6708
mates	-6709
ograp	-6710
onent	-6711
organ	-6712
ormal	-6713
state	-6714
sters	-6715
uding	-6716
▁abst	-6717
▁acts	-6718
▁adhd	-6719
▁alab	-6720
▁ants	-6721
▁bact	-6722
▁bars	-6723
▁bath	-6724
▁bird	-6725
▁bone	-6726
▁clar	-6727
▁coal	-6728
▁deny	-6729
▁disk	-6730
▁dump	-6731
▁durg	-6732
▁elev	-6733
▁elim	-6734
▁farm	-6735
▁fool	-6736
▁gene	-6737
▁guid	-6738
▁hits	-6739
▁hons	-6740
▁hook	-6741
▁horn	-6742
▁iiit	-6743
▁iits	-6744
▁indu	-6745
▁ipad	-6746
▁ipcc	-6747
▁isol	-6748
▁jong	-6749
▁leak	-6750
▁mask	-6751
▁melt	-6752
▁mood	-6753
▁moto	-6754
▁nons	-6755
▁oxid	-6756
▁pics	-6757
▁pray	-6758
▁prey	-6759
▁rasp	-6760
▁recy	-6761
▁repl	-6762
▁ryan	-6763
▁sach	-6764
▁sett	-6765
▁sony	-6766
▁surn	-6767
▁tail	-6768
▁tens	-6769
▁thor	-6770
▁zion	-6771
ansion	-6772
arding	-6773
cience	-6774
edical	-6775
enance	-6776
ipedia	-6777
lastic	-6778
minals	-6779
parent	-6780
▁absor	-6781
▁airpl	-6782
▁alien	-6783
▁anger	-6784
▁arabs	-6785
▁arrog	-6786
▁badly	-6787
▁bills	-6788
▁bonus	-6789
▁bound	-6790
▁carol	-6791
▁cheat	-6792
▁chrom	-6793
▁cured	-6794
▁curve	-6795
▁drama	-6796
▁drawn	-6797
▁embed	-6798
▁estim	-6799
▁fired	-6800
▁frust	-6801
▁grown	-6802
▁guess	-6803
▁hacks	-6804
▁holes	-6805
▁indic	-6806
▁jones	-6807
▁kenya	-6808
▁knife	-6809
▁lanka	-6810
▁liked	-6811
▁lingu	-6812
▁liver	-6813
▁lungs	-6814
▁miles	-6815
▁minds	-6816
▁monop	-6817
▁moons	-6818
▁moroc	-6819
▁niger	-6820
▁nobel	-6821
▁param	-6822
▁physi	-6823
▁pitch	-6824
▁resid	-6825
▁rural	-6826
▁singh	-6827
▁slept	-6828
▁sorry	-6829
▁sperm	-6830
▁sport	-6831
▁taste	-6832
▁theat	-6833
▁traum	-6834
▁truck	-6835
▁uncon	-6836
▁usage	-6837
▁veter	-6838
▁warri	-6839
▁wheel	-6840
issions	-6841
mediate	-6842
ometric	-6843
▁airbnb	-6844
▁allows	-6845
▁argent	-6846
▁backup	-6847
▁batman	-6848
▁beauty	-6849
▁bhopal	-6850
▁bombay	-6851
▁boston	-6852
▁bother	-6853
▁caring	-6854
▁chocol	-6855
▁chosen	-6856
▁columb	-6857
▁correl	-6858
▁cruise	-6859
▁defend	-6860
▁diesel	-6861
▁dinner	-6862
▁earths	-6863
▁elizab	-6864
▁ensure	-6865
▁escape	-6866
▁extrem	-6867
▁fellow	-6868
▁filter	-6869
▁fluent	-6870
▁formal	-6871
▁garden	-6872
▁greece	-6873
▁hacked	-6874
▁inches	-6875
▁linear	-6876
▁looked	-6877
▁margin	-6878
▁masses	-6879
▁meters	-6880
▁mirror	-6881
▁nobody	-6882
▁nutrit	-6883
▁openly	-6884
▁oracle	-6885
▁output	-6886
▁overth	-6887
▁permit	-6888
▁pilani	-6889
▁proven	-6890
▁puppet	-6891
▁racial	-6892
▁raised	-6893
▁rajast	-6894
▁reform	-6895
▁refund	-6896
▁rocket	-6897
▁safest	-6898
▁satisf	-6899
▁scenes	-6900
▁shared	-6901
▁slaves	-6902
▁slight	-6903
▁smooth	-6904
▁stamps	-6905
▁stored	-6906
▁strict	-6907
▁strugg	-6908
▁talked	-6909
▁telugu	-6910
▁thesis	-6911
▁tinder	-6912
▁unfair	-6913
▁voters	-6914
▁wheels	-6915
abharata	-6916
american	-6917
entially	-6918
▁accused	-6919
▁amounts	-6920
▁battles	-6921
▁bedroom	-6922
▁belgium	-6923
▁circuit	-6924
▁compass	-6925
▁contest	-6926
▁cuisine	-6927
▁default	-6928
▁defence	-6929
▁defense	-6930
▁deliber	-6931
▁dioxide	-6932
▁dresses	-6933
▁efforts	-6934
▁existed	-6935
▁faculty	-6936
▁figures	-6937
▁fishing	-6938
▁hardest	-6939
▁helping	-6940
▁herself	-6941
▁integer	-6942
▁interse	-6943
▁iranian	-6944
▁islands	-6945
▁journey	-6946
▁krishna	-6947
▁letting	-6948
▁martial	-6949
▁matches	-6950
▁matters	-6951
▁menstru	-6952
▁missile	-6953
▁mission	-6954
▁mosquit	-6955
▁painful	-6956
▁passive	-6957
▁periods	-6958
▁prestig	-6959
▁privile	-6960
▁reports	-6961
▁studied	-6962
▁summary	-6963
▁switzer	-6964
▁village	-6965
▁visited	-6966
▁warming	-6967
▁welcome	-6968
▁withdra	-6969
▁workers	-6970
ationally	-6971
▁abstract	-6972
▁achieved	-6973
▁americas	-6974
▁anywhere	-6975
▁attached	-6976
▁berkeley	-6977
▁brahmins	-6978
▁cleaning	-6979
▁compress	-6980
▁countrys	-6981
▁delivery	-6982
▁divorced	-6983
▁emotions	-6984
▁facility	-6985
▁feminism	-6986
▁freshers	-6987
▁friction	-6988
▁hypocrit	-6989
▁hypothet	-6990
▁infinite	-6991
▁intimate	-6992
▁investor	-6993
▁lectures	-6994
▁magazine	-6995
▁mandarin	-6996
▁medieval	-6997
▁merchant	-6998
▁morality	-6999
▁murdered	-7000
▁periodic	-7001
▁regional	-7002
▁reliance	-7003
▁requires	-7004
▁robotics	-7005
▁sections	-7006
▁smallest	-7007
▁speakers	-7008
▁stranger	-7009
▁surround	-7010
▁survival	-7011
▁treating	-7012
▁ultimate	-7013
▁vehicles	-7014
ologically	-7015
▁alcoholic	-7016
▁answering	-7017
▁appearing	-7018
▁associate	-7019
▁believing	-7020
▁cambridge	-7021
▁challenge	-7022
▁chemicals	-7023
▁christmas	-7024
▁correctly	-7025
▁criminals	-7026
▁dimension	-7027
▁expanding	-7028
▁expansion	-7029
▁expecting	-7030
▁foreigner	-7031
▁generator	-7032
▁immigrant	-7033
▁judgement	-7034
▁medicines	-7035
▁newspaper	-7036
▁northeast	-7037
▁otherwise	-7038
▁overnight	-7039
▁prisoners	-7040
▁purchased	-7041
▁radiation	-7042
▁reasoning	-7043
▁receiving	-7044
▁residence	-7045
▁sacrifice	-7046
▁scandinav	-7047
▁searching	-7048
▁september	-7049
▁strangers	-7050
▁streaming	-7051
▁strongest	-7052
▁subtitles	-7053
▁unhealthy	-7054
▁biomedical	-7055
▁calculator	-7056
▁candidates	-7057
▁comparison	-7058
▁discipline	-7059
▁foundation	-7060
▁institutes	-7061
▁instrument	-7062
▁mainstream	-7063
▁masturbate	-7064
▁networking	-7065
▁neutrality	-7066
▁phenomenon	-7067
▁psychopath	-7068
▁recognized	-7069
▁regression	-7070
▁resistance	-7071
▁scriptures	-7072
▁separation	-7073
▁treatments	-7074
▁anonymously	-7075
▁complicated	-7076
▁connections	-7077
▁description	-7078
▁girlfriends	-7079
▁governments	-7080
▁implemented	-7081
▁internships	-7082
▁limitations	-7083
▁mahabharata	-7084
▁maintenance	-7085
▁nationalism	-7086
▁politically	-7087
▁recruitment	-7088
▁switzerland	-7089
▁accidentally	-7090
▁economically	-7091
▁presentation	-7092
▁restrictions	-7093
▁controversial	-7094
▁entertainment	-7095
▁neighborhoods	-7096
▁organizations	-7097
▁philosophical	-7098
▁administration	-7099
▁simultaneously	-7100
▁transportation	-7101
22	-7102
24	-7103
81	-7104
99	-7105
cm	-7106
fi	-7107
fo	-7108
mm	-7109
rp	-7110
sp	-7111
tu	-7112
wl	-7113
200	-7114
ahs	-7115
aid	-7116
anj	-7117
bar	-7118
ben	-7119
bts	-7120
car	-7121
chy	-7122
enc	-7123
eor	-7124
erk	-7125
hop	-7126
itz	-7127
jan	-7128
kan	-7129
kin	-7130
oly	-7131
phy	-7132
reg	-7133
rim	-7134
rot	-7135
see	-7136
spe	-7137
tes	-7138
uit	-7139
urt	-7140
wed	-7141
why	-7142
win	-7143
yll	-7144
▁31	-7145
▁44	-7146
▁fb	-7147
▁ft	-7148
▁hk	-7149
▁ol	-7150
▁om	-7151
▁ov	-7152
▁si	-7153
▁ub	-7154
▁vo	-7155
▁yo	-7156
ador	-7157
anas	-7158
ango	-7159
anny	-7160
anth	-7161
apur	-7162
assy	-7163
ayan	-7164
bble	-7165
burn	-7166
ckin	-7167
cule	-7168
cure	-7169
dium	-7170
fall	-7171
free	-7172
gasm	-7173
hand	-7174
heet	-7175
iana	-7176
ibet	-7177
icit	-7178
icul	-7179
igma	-7180
iler	-7181
ione	-7182
ipro	-7183
itee	-7184
kart	-7185
kind	-7186
ocad	-7187
ogan	-7188
opes	-7189
orph	-7190
rill	-7191
seud	-7192
ttar	-7193
udes	-7194
uity	-7195
user	-7196
yles	-7197
zing	-7198
▁400	-7199
▁aad	-7200
▁abn	-7201
▁beg	-7202
▁bhu	-7203
▁bin	-7204
▁cad	-7205
▁ceo	-7206
▁cia	-7207
▁cub	-7208
▁cyl	-7209
▁esc	-7210
▁fid	-7211
▁fol	-7212
▁gau	-7213
▁gdp	-7214
▁hip	-7215
▁ink	-7216
▁inr	-7217
▁ion	-7218
▁joe	-7219
▁jup	-7220
▁koh	-7221
▁len	-7222
▁lib	-7223
▁mca	-7224
▁mcc	-7225
▁odd	-7226
▁ore	-7227
▁pcm	-7228
▁pdf	-7229
▁plu	-7230
▁rah	-7231
▁ray	-7232
▁roy	-7233
▁seg	-7234
▁sme	-7235
▁spr	-7236
▁ssb	-7237
▁tab	-7238
▁wid	-7239
▁wil	-7240
aline	-7241
ancer	-7242
anged	-7243
anner	-7244
ayana	-7245
based	-7246
class	-7247
conds	-7248
crast	-7249
eling	-7250
elled	-7251
encer	-7252
esome	-7253
front	-7254
gebra	-7255
gging	-7256
herry	-7257
house	-7258
iated	-7259
ights	-7260
iliar	-7261
iting	-7262
itute	-7263
izers	-7264
lding	-7265
llore	-7266
oldem	-7267
omous	-7268
oster	-7269
otive	-7270
plant	-7271
point	-7272
proof	-7273
sting	-7274
stone	-7275
udeau	-7276
urved	-7277
using	-7278
uther	-7279
▁1990	-7280
▁2013	-7281
▁2014	-7282
▁abol	-7283
▁ache	-7284
▁alot	-7285
▁aunt	-7286
▁axis	-7287
▁bash	-7288
▁bcom	-7289
▁beer	-7290
▁bise	-7291
▁boom	-7292
▁bowl	-7293
▁brah	-7294
▁buff	-7295
▁bump	-7296
▁chop	-7297
▁corn	-7298
▁cube	-7299
▁duke	-7300
▁ebay	-7301
▁fest	-7302
▁fing	-7303
▁ford	-7304
▁fulf	-7305
▁guar	-7306
▁held	-7307
▁hybr	-7308
▁icon	-7309
▁intu	-7310
▁item	-7311
▁jord	-7312
▁kath	-7313
▁kent	-7314
▁kurd	-7315
▁lean	-7316
▁lift	-7317
▁lith	-7318
▁logo	-7319
▁luke	-7320
▁marx	-7321
▁mary	-7322
▁merc	-7323
▁mike	-7324
▁morm	-7325
▁neck	-7326
▁nick	-7327
▁nift	-7328
▁none	-7329
▁nove	-7330
▁pend	-7331
▁pets	-7332
▁pose	-7333
▁poss	-7334
▁pull	-7335
▁quad	-7336
▁redd	-7337
▁ride	-7338
▁salt	-7339
▁shit	-7340
▁soup	-7341
▁spat	-7342
▁stem	-7343
▁stip	-7344
▁synt	-7345
▁tack	-7346
▁tape	-7347
▁trop	-7348
▁turb	-7349
▁unin	-7350
▁vend	-7351
▁warn	-7352
▁wifi	-7353
active	-7354
ailand	-7355
bourne	-7356
course	-7357
engers	-7358
ffered	-7359
hereum	-7360
icious	-7361
iliate	-7362
inated	-7363
ington	-7364
inting	-7365
ivated	-7366
ometry	-7367
onalds	-7368
orship	-7369
oscope	-7370
pected	-7371
piracy	-7372
racted	-7373
usters	-7374
▁alban	-7375
▁album	-7376
▁alter	-7377
▁april	-7378
▁armen	-7379
▁balls	-7380
▁beach	-7381
▁beard	-7382
▁bench	-7383
▁bikes	-7384
▁bones	-7385
▁bribe	-7386
▁canal	-7387
▁climb	-7388
▁datas	-7389
▁deriv	-7390
▁devil	-7391
▁drain	-7392
▁eaten	-7393
▁elite	-7394
▁emper	-7395
▁empty	-7396
▁fever	-7397
▁flood	-7398
▁flour	-7399
▁fruit	-7400
▁genre	-7401
▁giant	-7402
▁grams	-7403
▁gross	-7404
▁hated	-7405
▁henry	-7406
▁highs	-7407
▁iiser	-7408
▁jason	-7409
▁joint	-7410
▁legis	-7411
▁lemon	-7412
▁lists	-7413
▁login	-7414
▁matri	-7415
▁mckin	-7416
▁metro	-7417
▁naval	-7418
▁oblig	-7419
▁optim	-7420
▁orbit	-7421
▁outer	-7422
▁patna	-7423
▁petro	-7424
▁plate	-7425
▁poems	-7426
▁popul	-7427
▁pseud	-7428
▁quite	-7429
▁raped	-7430
▁rapid	-7431
▁recre	-7432
▁relat	-7433
▁revol	-7434
▁rings	-7435
▁rooms	-7436
▁ruled	-7437
▁scary	-7438
▁seven	-7439
▁sheet	-7440
▁staff	-7441
▁stats	-7442
▁steve	-7443
▁sulph	-7444
▁swift	-7445
▁teles	-7446
▁thank	-7447
▁thumb	-7448
▁tibet	-7449
▁titan	-7450
▁turns	-7451
▁units	-7452
▁uttar	-7453
▁vocal	-7454
▁votes	-7455
▁wives	-7456
essions	-7457
inerary	-7458
otherap	-7459
reaming	-7460
rection	-7461
respect	-7462
▁100000	-7463
▁abused	-7464
▁addict	-7465
▁adding	-7466
▁ambass	-7467
▁baking	-7468
▁beside	-7469
▁binary	-7470
▁bitter	-7471
▁bottle	-7472
▁cheese	-7473
▁chinas	-7474
▁cleans	-7475
▁client	-7476
▁column	-7477
▁comics	-7478
▁compos	-7479
▁condom	-7480
▁contem	-7481
▁copper	-7482
▁corner	-7483
▁dental	-7484
▁divide	-7485
▁donate	-7486
▁driver	-7487
▁fertil	-7488
▁flavor	-7489
▁gravit	-7490
▁hadoop	-7491
▁hardly	-7492
▁hating	-7493
▁insist	-7494
▁intent	-7495
▁joined	-7496
▁killer	-7497
▁lights	-7498
▁meteor	-7499
▁morals	-7500
▁morgan	-7501
▁motors	-7502
▁nagpur	-7503
▁obamas	-7504
▁orgasm	-7505
▁orient	-7506
▁orthod	-7507
▁passes	-7508
▁pedoph	-7509
▁pilots	-7510
▁pocket	-7511
▁retire	-7512
▁ruling	-7513
▁safely	-7514
▁sensor	-7515
▁singer	-7516
▁sodium	-7517
▁sphere	-7518
▁spoken	-7519
▁stable	-7520
▁surviv	-7521
▁tablet	-7522
▁tamils	-7523
▁taylor	-7524
▁vessel	-7525
▁viewed	-7526
▁volcan	-7527
▁voldem	-7528
▁worksh	-7529
ensional	-7530
ications	-7531
▁adopted	-7532
▁algebra	-7533
▁angeles	-7534
▁austria	-7535
▁awesome	-7536
▁ayurved	-7537
▁banning	-7538
▁blindly	-7539
▁breasts	-7540
▁builder	-7541
▁bullets	-7542
▁capable	-7543
▁ceiling	-7544
▁charged	-7545
▁chicago	-7546
▁concert	-7547
▁conquer	-7548
▁constra	-7549
▁corresp	-7550
▁creates	-7551
▁editing	-7552
▁electro	-7553
▁fantasy	-7554
▁farmers	-7555
▁fascist	-7556
▁fighter	-7557
▁flights	-7558
▁gaining	-7559
▁hacking	-7560
▁hanging	-7561
▁harvard	-7562
▁holiday	-7563
▁hostels	-7564
▁hosting	-7565
▁ignored	-7566
▁lottery	-7567
▁macbook	-7568
▁microbi	-7569
▁muscles	-7570
▁musical	-7571
▁neither	-7572
▁ontario	-7573
▁ottoman	-7574
▁pacific	-7575
▁posting	-7576
▁printed	-7577
▁ranking	-7578
▁reached	-7579
▁richest	-7580
▁savings	-7581
▁scoring	-7582
▁seasons	-7583
▁seconds	-7584
▁secured	-7585
▁shopify	-7586
▁singing	-7587
▁speaker	-7588
▁sponsor	-7589
▁surgeon	-7590
▁swedish	-7591
▁trudeau	-7592
▁ukraine	-7593
▁unknown	-7594
▁upgrade	-7595
▁vaccine	-7596
▁vellore	-7597
▁watches	-7598
▁william	-7599
▁winning	-7600
▁agencies	-7601
▁airplane	-7602
▁approval	-7603
▁attacked	-7604
▁autistic	-7605
▁cheating	-7606
▁damaging	-7607
▁declared	-7608
▁defining	-7609
▁definite	-7610
▁dictator	-7611
▁dominant	-7612
▁duration	-7613
▁educated	-7614
▁electrom	-7615
▁embedded	-7616
▁ethereum	-7617
▁feedback	-7618
▁flipkart	-7619
▁forehead	-7620
▁indirect	-7621
▁longterm	-7622
▁measures	-7623
▁molecule	-7624
▁networks	-7625
▁normally	-7626
▁obtained	-7627
▁organism	-7628
▁peroxide	-7629
▁procrast	-7630
▁recovery	-7631
▁sequence	-7632
▁shoulder	-7633
▁shutdown	-7634
▁slightly	-7635
▁spending	-7636
▁suffered	-7637
▁survived	-7638
▁thailand	-7639
▁triangle	-7640
▁trillion	-7641
▁unwanted	-7642
girlfriend	-7643
▁afterlife	-7644
▁agreement	-7645
▁astronaut	-7646
▁breakdown	-7647
▁breathing	-7648
▁cancelled	-7649
▁convinced	-7650
▁detection	-7651
▁discrimin	-7652
▁disorders	-7653
▁drawbacks	-7654
▁elizabeth	-7655
▁francisco	-7656
▁graduated	-7657
▁graduates	-7658
▁identical	-7659
▁illegally	-7660
▁imaginary	-7661
▁involving	-7662
▁itinerary	-7663
▁melbourne	-7664
▁messenger	-7665
▁offensive	-7666
▁organized	-7667
▁paragraph	-7668
▁personnel	-7669
▁poisonous	-7670
▁positions	-7671
▁rajasthan	-7672
▁raspberry	-7673
▁reactions	-7674
▁recording	-7675
▁reproduce	-7676
▁secondary	-7677
▁separated	-7678
▁socialist	-7679
▁sociopath	-7680
▁somewhere	-7681
▁textbooks	-7682
▁therefore	-7683
▁wholesale	-7684
▁wikipedia	-7685
▁algorithms	-7686
▁automotive	-7687
▁classified	-7688
▁committing	-7689
▁conspiracy	-7690
▁containing	-7691
▁controlled	-7692
▁disability	-7693
▁discussion	-7694
▁engagement	-7695
▁harassment	-7696
▁indonesian	-7697
▁mosquitoes	-7698
▁performing	-7699
▁preference	-7700
▁protection	-7701
▁punishment	-7702
▁represents	-7703
▁sociopaths	-7704
▁structures	-7705
▁superpower	-7706
▁travelling	-7707
▁westerners	-7708
▁agriculture	-7709
▁communicate	-7710
▁correlation	-7711
▁downloading	-7712
▁functioning	-7713
▁ingredients	-7714
▁inspiration	-7715
▁replacement	-7716
▁residential	-7717
▁statistical	-7718
▁transaction	-7719
▁acceleration	-7720
▁achievements	-7721
▁availability	-7722
▁contemporary	-7723
▁conventional	-7724
▁difficulties	-7725
▁intermediate	-7726
▁introduction	-7727
▁masturbating	-7728
▁subscription	-7729
▁unemployment	-7730
▁gravitational	-7731
▁homosexuality	-7732
▁investigation	-7733
▁professionals	-7734
▁qualification	-7735
▁realistically	-7736
▁revolutionary	-7737
▁responsibility	-7738
▁internationally	-7739
45	-7740
47	-7741
gc	-7742
kh	-7743
mu	-7744
mw	-7745
oe	-7746
sy	-7747
yn	-7748
ags	-7749
aks	-7750
aly	-7751
amb	-7752
ano	-7753
anz	-7754
arh	-7755
arl	-7756
aya	-7757
aze	-7758
bor	-7759
def	-7760
fla	-7761
got	-7762
hea	-7763
hit	-7764
iah	-7765
ibi	-7766
ico	-7767
igs	-7768
jay	-7769
job	-7770
kyo	-7771
lse	-7772
nad	-7773
nat	-7774
och	-7775
oll	-7776
orp	-7777
pop	-7778
pse	-7779
rav	-7780
rid	-7781
rig	-7782
sen	-7783
shi	-7784
sts	-7785
tee	-7786
udd	-7787
upp	-7788
uru	-7789
uum	-7790
vas	-7791
wah	-7792
yrs	-7793
▁01	-7794
▁33	-7795
▁38	-7796
▁83	-7797
▁88	-7798
▁az	-7799
▁cd	-7800
▁dh	-7801
▁mf	-7802
▁mg	-7803
▁nm	-7804
▁vl	-7805
2017	-7806
abis	-7807
acks	-7808
aken	-7809
alam	-7810
amed	-7811
anne	-7812
apse	-7813
aris	-7814
asha	-7815
atar	-7816
avan	-7817
bean	-7818
camp	-7819
code	-7820
comp	-7821
elle	-7822
esis	-7823
fire	-7824
flix	-7825
flow	-7826
frac	-7827
gian	-7828
hoka	-7829
hoot	-7830
iffs	-7831
igan	-7832
imed	-7833
indu	-7834
inte	-7835
itya	-7836
iver	-7837
lded	-7838
leum	-7839
mals	-7840
mans	-7841
nite	-7842
olas	-7843
omes	-7844
ours	-7845
plus	-7846
pple	-7847
requ	-7848
rete	-7849
rium	-7850
rons	-7851
seum	-7852
test	-7853
thal	-7854
tons	-7855
untu	-7856
urgy	-7857
vide	-7858
will	-7859
ymes	-7860
▁101	-7861
▁120	-7862
▁150	-7863
▁197	-7864
▁250	-7865
▁aid	-7866
▁api	-7867
▁aug	-7868
▁bee	-7869
▁bob	-7870
▁cav	-7871
▁cer	-7872
▁cis	-7873
▁ctc	-7874
▁dye	-7875
▁eco	-7876
▁eee	-7877
▁erp	-7878
▁feb	-7879
▁fib	-7880
▁gad	-7881
▁gon	-7882
▁gor	-7883
▁hay	-7884
▁hem	-7885
▁hsc	-7886
▁ips	-7887
▁kor	-7888
▁lbs	-7889
▁mcd	-7890
▁mcu	-7891
▁mob	-7892
▁nap	-7893
▁ner	-7894
▁nim	-7895
▁pir	-7896
▁pis	-7897
▁pup	-7898
▁row	-7899
▁sas	-7900
▁sew	-7901
▁shy	-7902
▁ssd	-7903
▁tas	-7904
▁tir	-7905
▁ups	-7906
▁usb	-7907
▁usc	-7908
▁viv	-7909
▁vom	-7910
▁vpn	-7911
▁wet	-7912
▁wol	-7913
ailed	-7914
aires	-7915
alaji	-7916
apsed	-7917
asses	-7918
athan	-7919
berty	-7920
cedes	-7921
chers	-7922
cling	-7923
eless	-7924
etary	-7925
hamed	-7926
hibit	-7927
icals	-7928
ifies	-7929
inent	-7930
ipers	-7931
irmed	-7932
marks	-7933
oline	-7934
otism	-7935
otted	-7936
plate	-7937
pless	-7938
raham	-7939
rieve	-7940
riger	-7941
rious	-7942
unity	-7943
usual	-7944
wable	-7945
wares	-7946
wered	-7947
▁1980	-7948
▁2012	-7949
▁5000	-7950
▁alth	-7951
▁anat	-7952
▁aspd	-7953
▁baja	-7954
▁bard	-7955
▁bass	-7956
▁bell	-7957
▁bend	-7958
▁bent	-7959
▁benz	-7960
▁bias	-7961
▁bicy	-7962
▁bron	-7963
▁brut	-7964
▁bugs	-7965
▁bulk	-7966
▁cage	-7967
▁carn	-7968
▁cere	-7969
▁cham	-7970
▁chan	-7971
▁chip	-7972
▁coca	-7973
▁craz	-7974
▁dani	-7975
▁deck	-7976
▁dose	-7977
▁drag	-7978
▁duck	-7979
▁ends	-7980
▁engg	-7981
▁enth	-7982
▁exem	-7983
▁eyel	-7984
▁fond	-7985
▁glue	-7986
▁grat	-7987
▁hars	-7988
▁hier	-7989
▁http	-7990
▁hund	-7991
▁hype	-7992
▁ibps	-7993
▁iims	-7994
▁iisc	-7995
▁inev	-7996
▁inju	-7997
▁jedi	-7998
▁jewe	-7999
▁july	-8000
▁jury	-8001
▁kota	-8002
▁laid	-8003
▁lake	-8004
▁lamp	-8005
▁laun	-8006
▁lesb	-8007
▁mant	-8008
▁marg	-8009
▁mate	-8010
▁matt	-8011
▁moms	-8012
▁mugh	-8013
▁narr	-8014
▁nont	-8015
▁numb	-8016
▁odds	-8017
▁olds	-8018
▁oven	-8019
▁panc	-8020
▁peer	-8021
▁penn	-8022
▁pizz	-8023
▁plas	-8024
▁pond	-8025
▁ravi	-8026
▁roof	-8027
▁salv	-8028
▁scal	-8029
▁scan	-8030
▁shel	-8031
▁shif	-8032
▁skip	-8033
▁slee	-8034
▁slit	-8035
▁spid	-8036
▁spit	-8037
▁stab	-8038
▁stim	-8039
▁subm	-8040
▁sund	-8041
▁surg	-8042
▁symp	-8043
▁ties	-8044
▁tiny	-8045
▁trou	-8046
▁tube	-8047
▁ucla	-8048
▁unde	-8049
▁verb	-8050
▁wide	-8051
▁wins	-8052
▁wipe	-8053
aneous	-8054
asters	-8055
ateful	-8056
ateral	-8057
called	-8058
commun	-8059
encing	-8060
ername	-8061
herent	-8062
ibbean	-8063
icians	-8064
ifying	-8065
indian	-8066
isible	-8067
liness	-8068
onance	-8069
oughly	-8070
ounced	-8071
pector	-8072
porate	-8073
rating	-8074
render	-8075
rophys	-8076
usions	-8077
▁acids	-8078
▁align	-8079
▁allig	-8080
▁alpha	-8081
▁angel	-8082
▁arise	-8083
▁armor	-8084
▁arrow	-8085
▁assam	-8086
▁assum	-8087
▁atroc	-8088
▁belly	-8089
▁brief	-8090
▁bruce	-8091
▁calor	-8092
▁centu	-8093
▁chaos	-8094
▁clerk	-8095
▁clone	-8096
▁comey	-8097
▁coord	-8098
▁cowor	-8099
▁curse	-8100
▁darth	-8101
▁deact	-8102
▁delic	-8103
▁depri	-8104
▁diego	-8105
▁elder	-8106
▁eyebr	-8107
▁faces	-8108
▁falls	-8109
▁forum	-8110
▁fried	-8111
▁guard	-8112
▁index	-8113
▁ionic	-8114
▁kevin	-8115
▁kidna	-8116
▁lands	-8117
▁loose	-8118
▁louis	-8119
▁manif	-8120
▁metab	-8121
▁moles	-8122
▁mysql	-8123
▁ncert	-8124
▁newly	-8125
▁parli	-8126
▁persu	-8127
▁poles	-8128
▁pride	-8129
▁prone	-8130
▁prost	-8131
▁pulse	-8132
▁races	-8133
▁rehab	-8134
▁relax	-8135
▁roads	-8136
▁satur	-8137
▁sells	-8138
▁shake	-8139
▁shame	-8140
▁shell	-8141
▁shift	-8142
▁shiva	-8143
▁smile	-8144
▁smith	-8145
▁socks	-8146
▁spent	-8147
▁split	-8148
▁strip	-8149
▁stuck	-8150
▁sunni	-8151
▁talks	-8152
▁tense	-8153
▁texts	-8154
▁tiger	-8155
▁tokyo	-8156
▁toxic	-8157
▁tread	-8158
▁trial	-8159
▁troll	-8160
▁tweet	-8161
▁uncom	-8162
▁vijay	-8163
▁wavel	-8164
▁yield	-8165
▁zones	-8166
autions	-8167
entials	-8168
iculous	-8169
illance	-8170
itative	-8171
lements	-8172
ophobic	-8173
ructure	-8174
secuted	-8175
▁201718	-8176
▁allerg	-8177
▁antide	-8178
▁appare	-8179
▁approx	-8180
▁ashoka	-8181
▁assign	-8182
▁athlet	-8183
▁atomic	-8184
▁balaji	-8185
▁banana	-8186
▁batter	-8187
▁bharat	-8188
▁biased	-8189
▁booked	-8190
▁braces	-8191
▁breaks	-8192
▁bubble	-8193
▁burger	-8194
▁bypass	-8195
▁casual	-8196
▁cheque	-8197
▁collab	-8198
▁county	-8199
▁cousin	-8200
▁crypto	-8201
▁curric	-8202
▁deeply	-8203
▁desire	-8204
▁dosage	-8205
▁doubts	-8206
▁dragon	-8207
▁ebooks	-8208
▁enable	-8209
▁fights	-8210
▁firing	-8211
▁folder	-8212
▁freeze	-8213
▁fright	-8214
▁gifted	-8215
▁greeks	-8216
▁hacker	-8217
▁holder	-8218
▁hybrid	-8219
▁implic	-8220
▁incons	-8221
▁itunes	-8222
▁jackie	-8223
▁junior	-8224
▁lately	-8225
▁listed	-8226
▁litter	-8227
▁loaded	-8228
▁luxury	-8229
▁makeup	-8230
▁manner	-8231
▁missed	-8232
▁narrow	-8233
▁nepali	-8234
▁neural	-8235
▁novels	-8236
▁observ	-8237
▁patent	-8238
▁pedest	-8239
▁pencil	-8240
▁phrase	-8241
▁plates	-8242
▁portra	-8243
▁potato	-8244
▁primit	-8245
▁prince	-8246
▁profic	-8247
▁remedy	-8248
▁render	-8249
▁rifles	-8250
▁rivers	-8251
▁sharia	-8252
▁shirts	-8253
▁silent	-8254
▁snakes	-8255
▁socket	-8256
▁stores	-8257
▁sunday	-8258
▁tennis	-8259
▁terrif	-8260
▁tongue	-8261
▁tracks	-8262
▁tricks	-8263
▁ubuntu	-8264
▁vacuum	-8265
▁verbal	-8266
▁voting	-8267
▁warren	-8268
▁wisdom	-8269
▁wooden	-8270
building	-8271
ilingual	-8272
inations	-8273
mination	-8274
ographer	-8275
ractions	-8276
rational	-8277
▁abraham	-8278
▁acquire	-8279
▁advisor	-8280
▁alabama	-8281
▁ashamed	-8282
▁autocad	-8283
▁beatles	-8284
▁bombing	-8285
▁captain	-8286
▁chapter	-8287
▁charles	-8288
▁cleared	-8289
▁closest	-8290
▁compete	-8291
▁comprom	-8292
▁counted	-8293
▁couples	-8294
▁covered	-8295
▁cracked	-8296
▁curious	-8297
▁custody	-8298
▁decades	-8299
▁decides	-8300
▁designs	-8301
▁discard	-8302
▁dynamic	-8303
▁elastic	-8304
▁embassy	-8305
▁empathy	-8306
▁enemies	-8307
▁engines	-8308
▁enlight	-8309
▁entered	-8310
▁equally	-8311
▁evening	-8312
▁excuses	-8313
▁failing	-8314
▁fascism	-8315
▁fastest	-8316
▁finland	-8317
▁fortune	-8318
▁founder	-8319
▁granted	-8320
▁heating	-8321
▁however	-8322
▁hundred	-8323
▁imagine	-8324
▁infrast	-8325
▁inverse	-8326
▁jinping	-8327
▁kannada	-8328
▁keyword	-8329
▁koreans	-8330
▁lacking	-8331
▁lecture	-8332
▁leftist	-8333
▁mammals	-8334
▁mankind	-8335
▁mercury	-8336
▁mexican	-8337
▁migrate	-8338
▁mileage	-8339
▁mindset	-8340
▁monarch	-8341
▁municip	-8342
▁netflix	-8343
▁olympic	-8344
▁operate	-8345
▁origins	-8346
▁penalty	-8347
▁pending	-8348
▁pimples	-8349
▁podcast	-8350
▁pointer	-8351
▁postgra	-8352
▁prelims	-8353
▁premium	-8354
▁proceed	-8355
▁promise	-8356
▁prophet	-8357
▁propose	-8358
▁puberty	-8359
▁pulling	-8360
▁punjabi	-8361
▁realise	-8362
▁refugee	-8363
▁restart	-8364
▁returns	-8365
▁schemes	-8366
▁servers	-8367
▁session	-8368
▁shorter	-8369
▁shotgun	-8370
▁soldier	-8371
▁staring	-8372
▁stealth	-8373
▁stipend	-8374
▁subscri	-8375
▁suppose	-8376
▁tablets	-8377
▁tissues	-8378
▁tourism	-8379
▁traders	-8380
▁trained	-8381
▁trigger	-8382
▁trusted	-8383
▁unusual	-8384
▁vendors	-8385
▁villain	-8386
▁volcano	-8387
▁volunte	-8388
▁walmart	-8389
rological	-8390
▁abnormal	-8391
▁advocate	-8392
▁although	-8393
▁ancestry	-8394
▁answered	-8395
▁argument	-8396
▁arranged	-8397
▁arrogant	-8398
▁aviation	-8399
▁bankrupt	-8400
▁bisexual	-8401
▁bleeding	-8402
▁bringing	-8403
▁buddhism	-8404
▁cannabis	-8405
▁carolina	-8406
▁catching	-8407
▁chloroph	-8408
▁civilian	-8409
▁clearing	-8410
▁clinical	-8411
▁collapse	-8412
▁columbia	-8413
▁concrete	-8414
▁contains	-8415
▁cylinder	-8416
▁deleting	-8417
▁disabled	-8418
▁durgapur	-8419
▁einstein	-8420
▁familiar	-8421
▁fortnite	-8422
▁frequent	-8423
▁freshman	-8424
▁geograph	-8425
▁geometry	-8426
▁horrible	-8427
▁hypocris	-8428
▁injuries	-8429
▁innocent	-8430
▁intended	-8431
▁iranians	-8432
▁machines	-8433
▁mckinsey	-8434
▁mercedes	-8435
▁mexicans	-8436
▁monopoly	-8437
▁nigerian	-8438
▁november	-8439
▁observed	-8440
▁occupied	-8441
▁occurred	-8442
▁offended	-8443
▁olympics	-8444
▁operator	-8445
▁presence	-8446
▁provider	-8447
▁publicly	-8448
▁realized	-8449
▁referral	-8450
▁refriger	-8451
▁remedies	-8452
▁reported	-8453
▁resigned	-8454
▁retrieve	-8455
▁returned	-8456
▁rotation	-8457
▁shortest	-8458
▁smartest	-8459
▁sounding	-8460
▁stealing	-8461
▁surprise	-8462
▁taxation	-8463
▁template	-8464
▁tolerate	-8465
▁transmit	-8466
▁username	-8467
▁valuable	-8468
▁villains	-8469
▁virginia	-8470
▁weakness	-8471
▁withdraw	-8472
▁abandoned	-8473
▁affiliate	-8474
▁allahabad	-8475
▁anonymity	-8476
▁apologize	-8477
▁argentina	-8478
▁astrophys	-8479
▁attending	-8480
▁authentic	-8481
▁automatic	-8482
▁brainwash	-8483
▁brazilian	-8484
▁broadcast	-8485
▁butterfly	-8486
▁childrens	-8487
▁chocolate	-8488
▁cigarette	-8489
▁collapsed	-8490
▁communism	-8491
▁component	-8492
▁confirmed	-8493
▁criticize	-8494
▁databases	-8495
▁dependent	-8496
▁described	-8497
▁employers	-8498
▁essential	-8499
▁ethnicity	-8500
▁forgotten	-8501
▁freelance	-8502
▁fulfilled	-8503
▁furniture	-8504
▁groceries	-8505
▁hurricane	-8506
▁ignorance	-8507
▁immigrate	-8508
▁inspector	-8509
▁intention	-8510
▁interface	-8511
▁introduce	-8512
▁introvert	-8513
▁justified	-8514
▁locations	-8515
▁magazines	-8516
▁marriages	-8517
▁mcdonalds	-8518
▁menstrual	-8519
▁mountains	-8520
▁obviously	-8521
▁oxidation	-8522
▁performed	-8523
▁petroleum	-8524
▁physicist	-8525
▁preferred	-8526
▁presented	-8527
▁prevented	-8528
▁principle	-8529
▁privilege	-8530
▁providers	-8531
▁remington	-8532
▁residents	-8533
▁resistant	-8534
▁resonance	-8535
▁respected	-8536
▁satisfied	-8537
▁selective	-8538
▁shootings	-8539
▁sociology	-8540
▁spiderman	-8541
▁submitted	-8542
▁switching	-8543
▁telescope	-8544
▁tolerance	-8545
▁translate	-8546
▁voldemort	-8547
▁witnessed	-8548
▁wrestling	-8549
▁absolutely	-8550
▁acceptance	-8551
▁additional	-8552
▁atmosphere	-8553
▁attraction	-8554
▁calculated	-8555
▁collection	-8556
▁compressor	-8557
▁connecting	-8558
▁correspond	-8559
▁destroying	-8560
▁disrespect	-8561
▁economical	-8562
▁everywhere	-8563
▁highschool	-8564
▁innovation	-8565
▁interviews	-8566
▁laboratory	-8567
▁linguistic	-8568
▁meaningful	-8569
▁multiverse	-8570
▁narcissism	-8571
▁negatively	-8572
▁pakistanis	-8573
▁parliament	-8574
▁popularity	-8575
▁positively	-8576
▁presidents	-8577
▁preventing	-8578
▁protecting	-8579
▁submission	-8580
▁telecommun	-8581
▁threatened	-8582
▁translated	-8583
▁unexpected	-8584
▁wavelength	-8585
▁combination	-8586
▁composition	-8587
▁counterpart	-8588
▁destination	-8589
▁genetically	-8590
▁grandparent	-8591
▁handwriting	-8592
▁imagination	-8593
▁incorporate	-8594
▁individuals	-8595
▁influential	-8596
▁operational	-8597
▁palestinian	-8598
▁pornography	-8599
▁precautions	-8600
▁prestigious	-8601
▁programmers	-8602
▁progressive	-8603
▁recognition	-8604
▁regulations	-8605
▁theoretical	-8606
▁threatening	-8607
▁compensation	-8608
▁contribution	-8609
▁geographical	-8610
▁hypocritical	-8611
▁installation	-8612
▁intellectual	-8613
▁intersection	-8614
▁microbiology	-8615
▁particularly	-8616
▁psychiatrist	-8617
▁reproduction	-8618
▁scholarships	-8619
▁surveillance	-8620
▁transmission	-8621
▁consciousness	-8622
▁establishment	-8623
▁reinforcement	-8624
▁hypothetically	-8625
▁infrastructure	-8626
▁specialization	-8627
▁electromagnetic	-8628
▁psychologically	-8629
37	-8630
38	-8631
88	-8632
ij	-8633
je	-8634
jj	-8635
ko	-8636
ku	-8637
ml	-8638
nl	-8639
oh	-8640
rc	-8641
tc	-8642
100	-8643
150	-8644
agu	-8645
asm	-8646
azz	-8647
bac	-8648
bow	-8649
chi	-8650
cod	-8651
cus	-8652
dia	-8653
dis	-8654
dri	-8655
een	-8656
elf	-8657
fol	-8658
fun	-8659
had	-8660
hat	-8661
hya	-8662
ila	-8663
imm	-8664
inc	-8665
iny	-8666
irs	-8667
ito	-8668
itt	-8669
iya	-8670
jri	-8671
lan	-8672
loc	-8673
mod	-8674
olo	-8675
oma	-8676
omi	-8677
org	-8678
oul	-8679
psy	-8680
rey	-8681
rup	-8682
sem	-8683
tra	-8684
tsd	-8685
uda	-8686
una	-8687
ups	-8688
ura	-8689
van	-8690
vey	-8691
wag	-8692
wik	-8693
wis	-8694
yas	-8695
ynt	-8696
▁37	-8697
▁42	-8698
▁85	-8699
▁95	-8700
▁aj	-8701
▁cm	-8702
▁ec	-8703
▁ga	-8704
▁gs	-8705
▁ia	-8706
▁jr	-8707
▁kk	-8708
▁nd	-8709
▁nt	-8710
▁oz	-8711
▁pp	-8712
▁sd	-8713
▁tb	-8714
1000	-8715
abwe	-8716
aces	-8717
achi	-8718
adav	-8719
airs	-8720
aker	-8721
ante	-8722
apar	-8723
arma	-8724
aska	-8725
aton	-8726
carn	-8727
chus	-8728
cius	-8729
clip	-8730
etra	-8731
fast	-8732
haar	-8733
hero	-8734
hole	-8735
illa	-8736
iors	-8737
isal	-8738
itte	-8739
keys	-8740
leep	-8741
leys	-8742
link	-8743
logy	-8744
look	-8745
lsea	-8746
mail	-8747
mini	-8748
mony	-8749
nadu	-8750
ocks	-8751
oids	-8752
orse	-8753
otle	-8754
paid	-8755
phor	-8756
pted	-8757
ptic	-8758
rape	-8759
rick	-8760
rite	-8761
rust	-8762
teen	-8763
then	-8764
tion	-8765
town	-8766
uber	-8767
ucks	-8768
udge	-8769
umes	-8770
uras	-8771
ushi	-8772
utan	-8773
vind	-8774
wear	-8775
wife	-8776
zech	-8777
▁121	-8778
▁155	-8779
▁190	-8780
▁390	-8781
▁450	-8782
▁abu	-8783
▁amd	-8784
▁ari	-8785
▁arn	-8786
▁ary	-8787
▁ase	-8788
▁atl	-8789
▁bos	-8790
▁cfa	-8791
▁cnn	-8792
▁cof	-8793
▁coo	-8794
▁css	-8795
▁dil	-8796
▁dun	-8797
▁dvd	-8798
▁ech	-8799
▁ego	-8800
▁eli	-8801
▁enz	-8802
▁eos	-8803
▁ese	-8804
▁frm	-8805
▁gag	-8806
▁gaz	-8807
▁gib	-8808
▁hcl	-8809
▁heb	-8810
▁hoc	-8811
▁hop	-8812
▁ibm	-8813
▁inh	-8814
▁iod	-8815
▁ipu	-8816
▁isb	-8817
▁isc	-8818
▁ivy	-8819
▁jar	-8820
▁joy	-8821
▁jul	-8822
▁kaz	-8823
▁kkk	-8824
▁kle	-8825
▁kum	-8826
▁lyn	-8827
▁nan	-8828
▁ndt	-8829
▁neu	-8830
▁nri	-8831
▁oct	-8832
▁pcb	-8833
▁pip	-8834
▁psi	-8835
▁rib	-8836
▁rss	-8837
▁sar	-8838
▁sel	-8839
▁sir	-8840
▁ske	-8841
▁sms	-8842
▁ssn	-8843
▁ted	-8844
▁tsh	-8845
▁tub	-8846
▁une	-8847
▁upt	-8848
▁vad	-8849
▁vou	-8850
▁wax	-8851
▁wwe	-8852
▁xen	-8853
▁yrs	-8854
▁zoo	-8855
achal	-8856
agger	-8857
agree	-8858
agues	-8859
allas	-8860
angal	-8861
anges	-8862
ansas	-8863
asant	-8864
atter	-8865
bered	-8866
chest	-8867
conut	-8868
dress	-8869
enezu	-8870
erals	-8871
ermat	-8872
essed	-8873
folio	-8874
ghter	-8875
heads	-8876
heric	-8877
hesia	-8878
ifier	-8879
igarh	-8880
iscus	-8881
ishnu	-8882
istol	-8883
ivate	-8884
izant	-8885
izont	-8886
liers	-8887
lings	-8888
lland	-8889
llery	-8890
nical	-8891
ocial	-8892
oever	-8893
olete	-8894
omial	-8895
orses	-8896
otion	-8897
otton	-8898
plain	-8899
pling	-8900
posed	-8901
rates	-8902
ratic	-8903
rella	-8904
sheet	-8905
stood	-8906
story	-8907
ubali	-8908
ucker	-8909
vents	-8910
verts	-8911
video	-8912
women	-8913
words	-8914
xture	-8915
xuals	-8916
▁1947	-8917
▁aims	-8918
▁airt	-8919
▁ampl	-8920
▁anna	-8921
▁anne	-8922
▁anni	-8923
▁asym	-8924
▁azer	-8925
▁bags	-8926
▁bali	-8927
▁barb	-8928
▁bats	-8929
▁bees	-8930
▁bern	-8931
▁bhub	-8932
▁bind	-8933
▁bioc	-8934
▁brid	-8935
▁bust	-8936
▁carl	-8937
▁chau	-8938
▁chef	-8939
▁cine	-8940
▁clat	-8941
▁clay	-8942
▁conj	-8943
▁cops	-8944
▁cord	-8945
▁coup	-8946
▁cows	-8947
▁cram	-8948
▁crew	-8949
▁crop	-8950
▁curv	-8951
▁cute	-8952
▁delo	-8953
▁desi	-8954
▁emer	-8955
▁ethn	-8956
▁fart	-8957
▁feas	-8958
▁flee	-8959
▁gary	-8960
▁gent	-8961
▁gest	-8962
▁grad	-8963
▁grey	-8964
▁hdmi	-8965
▁hobb	-8966
▁hulk	-8967
▁hygi	-8968
▁hypn	-8969
▁impr	-8970
▁inch	-8971
▁info	-8972
▁intj	-8973
▁isro	-8974
▁kvpy	-8975
▁lank	-8976
▁laos	-8977
▁lego	-8978
▁lion	-8979
▁lips	-8980
▁loot	-8981
▁maps	-8982
▁mere	-8983
▁moth	-8984
▁mush	-8985
▁nasc	-8986
▁nios	-8987
▁nipp	-8988
▁nits	-8989
▁nost	-8990
▁nude	-8991
▁oman	-8992
▁oval	-8993
▁pale	-8994
▁pent	-8995
▁poop	-8996
▁pork	-8997
▁psus	-8998
▁ptsd	-8999
▁rage	-9000
▁rahu	-9001
▁rect	-9002
▁reun	-9003
▁ruin	-9004
▁runs	-9005
▁rush	-9006
▁sain	-9007
▁sake	-9008
▁sane	-9009
▁sans	-9010
▁shab	-9011
▁shah	-9012
▁shri	-9013
▁sket	-9014
▁slip	-9015
▁soap	-9016
▁soda	-9017
▁sour	-9018
▁sued	-9019
▁tear	-9020
▁thai	-9021
▁thus	-9022
▁toys	-9023
▁triv	-9024
▁unne	-9025
▁unst	-9026
▁uran	-9027
▁urls	-9028
▁vamp	-9029
▁vari	-9030
▁vein	-9031
▁vent	-9032
▁vlog	-9033
▁ward	-9034
▁wats	-9035
▁weve	-9036
▁whis	-9037
▁woke	-9038
▁xmen	-9039
▁zimb	-9040
▁zomb	-9041
assium	-9042
baijan	-9043
biosis	-9044
clipse	-9045
estyle	-9046
father	-9047
iables	-9048
ishing	-9049
istent	-9050
itched	-9051
jriwal	-9052
lights	-9053
liment	-9054
market	-9055
mering	-9056
muslim	-9057
nostic	-9058
omorph	-9059
ophren	-9060
orable	-9061
ospace	-9062
papers	-9063
rative	-9064
semble	-9065
valent	-9066
vation	-9067
veless	-9068
verted	-9069
wahati	-9070
weight	-9071
worthy	-9072
▁20000	-9073
▁50000	-9074
▁alike	-9075
▁appet	-9076
▁babys	-9077
▁bands	-9078
▁beams	-9079
▁boxer	-9080
▁cable	-9081
▁chase	-9082
▁clash	-9083
▁clust	-9084
▁coach	-9085
▁conce	-9086
▁deals	-9087
▁dedic	-9088
▁draft	-9089
▁drake	-9090
▁drown	-9091
▁empir	-9092
▁encry	-9093
▁fewer	-9094
▁flats	-9095
▁flows	-9096
▁fluid	-9097
▁forth	-9098
▁galax	-9099
▁gears	-9100
▁gifts	-9101
▁gopal	-9102
▁grass	-9103
▁guilt	-9104
▁helic	-9105
▁himal	-9106
▁icici	-9107
▁idiot	-9108
▁ignou	-9109
▁invit	-9110
▁isare	-9111
▁jimmy	-9112
▁kelly	-9113
▁kohli	-9114
▁lease	-9115
▁lifes	-9116
▁loans	-9117
▁milit	-9118
▁modif	-9119
▁mouse	-9120
▁naked	-9121
▁negot	-9122
▁norwe	-9123
▁panic	-9124
▁paras	-9125
▁patch	-9126
▁paths	-9127
▁pearl	-9128
▁penny	-9129
▁perks	-9130
▁pizza	-9131
▁plain	-9132
▁pluck	-9133
▁pyram	-9134
▁quiet	-9135
▁radar	-9136
▁rahul	-9137
▁rajiv	-9138
▁ranch	-9139
▁rated	-9140
▁recip	-9141
▁reper	-9142
▁reset	-9143
▁rival	-9144
▁robin	-9145
▁robot	-9146
▁ruler	-9147
▁safer	-9148
▁santa	-9149
▁scott	-9150
▁seeds	-9151
▁ships	-9152
▁shops	-9153
▁sides	-9154
▁sight	-9155
▁sized	-9156
▁snake	-9157
▁snape	-9158
▁sneak	-9159
▁spark	-9160
▁spart	-9161
▁spray	-9162
▁stack	-9163
▁straw	-9164
▁suits	-9165
▁swing	-9166
▁syrup	-9167
▁tanks	-9168
▁theoc	-9169
▁threw	-9170
▁tobac	-9171
▁tomat	-9172
▁towns	-9173
▁trait	-9174
▁trash	-9175
▁tribe	-9176
▁trips	-9177
▁twins	-9178
▁unatt	-9179
▁unlim	-9180
▁unmar	-9181
▁versa	-9182
▁voted	-9183
▁wages	-9184
▁wales	-9185
▁wears	-9186
▁wipro	-9187
▁woods	-9188
▁yeast	-9189
aneswar	-9190
ception	-9191
faction	-9192
ilation	-9193
iliated	-9194
iration	-9195
itching	-9196
natural	-9197
organic	-9198
otation	-9199
ractive	-9200
ulating	-9201
veloped	-9202
▁aadhar	-9203
▁adoles	-9204
▁affirm	-9205
▁aggreg	-9206
▁ambani	-9207
▁antibi	-9208
▁arrive	-9209
▁asleep	-9210
▁assess	-9211
▁assets	-9212
▁attach	-9213
▁attrib	-9214
▁august	-9215
▁basics	-9216
▁bhutan	-9217
▁boxers	-9218
▁brings	-9219
▁broker	-9220
▁bulgar	-9221
▁canvas	-9222
▁carter	-9223
▁cement	-9224
▁chains	-9225
▁checks	-9226
▁childs	-9227
▁clinic	-9228
▁compre	-9229
▁comput	-9230
▁crying	-9231
▁dallas	-9232
▁deduct	-9233
▁denied	-9234
▁deport	-9235
▁derive	-9236
▁dermat	-9237
▁desper	-9238
▁detail	-9239
▁devast	-9240
▁dishon	-9241
▁encoun	-9242
▁errors	-9243
▁excell	-9244
▁expert	-9245
▁extend	-9246
▁fallen	-9247
▁forced	-9248
▁forens	-9249
▁fourth	-9250
▁freely	-9251
▁friday	-9252
▁gadget	-9253
▁gather	-9254
▁genius	-9255
▁hiding	-9256
▁hispan	-9257
▁horses	-9258
▁humble	-9259
▁hungry	-9260
▁incent	-9261
▁indoor	-9262
▁insane	-9263
▁insect	-9264
▁invite	-9265
▁issued	-9266
▁jordan	-9267
▁labour	-9268
▁ladies	-9269
▁lenses	-9270
▁lesson	-9271
▁libert	-9272
▁liquor	-9273
▁lonely	-9274
▁massac	-9275
▁mechat	-9276
▁mentor	-9277
▁metaph	-9278
▁microm	-9279
▁miscon	-9280
▁myopia	-9281
▁mysore	-9282
▁naming	-9283
▁nether	-9284
▁nonpro	-9285
▁norway	-9286
▁nurses	-9287
▁occupy	-9288
▁occurs	-9289
▁oppose	-9290
▁pistol	-9291
▁polish	-9292
▁powder	-9293
▁prophe	-9294
▁propos	-9295
▁radius	-9296
▁raping	-9297
▁reddit	-9298
▁riding	-9299
▁rohing	-9300
▁romans	-9301
▁ronald	-9302
▁ruined	-9303
▁saturn	-9304
▁seemed	-9305
▁served	-9306
▁shakes	-9307
▁shaped	-9308
▁shield	-9309
▁shorts	-9310
▁sleepy	-9311
▁sovere	-9312
▁stalin	-9313
▁stated	-9314
▁stayed	-9315
▁steven	-9316
▁stones	-9317
▁styles	-9318
▁suited	-9319
▁suprem	-9320
▁surely	-9321
▁tackle	-9322
▁tempor	-9323
▁tennes	-9324
▁termin	-9325
▁texted	-9326
▁thapar	-9327
▁theyve	-9328
▁thread	-9329
▁throne	-9330
▁trauma	-9331
▁triump	-9332
▁trolls	-9333
▁unlike	-9334
▁upwork	-9335
▁vagina	-9336
▁vegans	-9337
▁venezu	-9338
▁versus	-9339
▁viable	-9340
▁violin	-9341
▁vishnu	-9342
▁werent	-9343
▁wheres	-9344
▁zucker	-9345
ceptions	-9346
chronous	-9347
esthesia	-9348
fortable	-9349
ilateral	-9350
iliation	-9351
interest	-9352
otherapy	-9353
speaking	-9354
▁abolish	-9355
▁anxious	-9356
▁approve	-9357
▁arrange	-9358
▁artwork	-9359
▁authors	-9360
▁backend	-9361
▁backlog	-9362
▁baggage	-9363
▁bengali	-9364
▁booking	-9365
▁burning	-9366
▁calorie	-9367
▁chelsea	-9368
▁chronic	-9369
▁coconut	-9370
▁collage	-9371
▁commute	-9372
▁confirm	-9373
▁consent	-9374
▁coolest	-9375
▁cooling	-9376
▁credits	-9377
▁crystal	-9378
▁declare	-9379
▁defined	-9380
▁demonet	-9381
▁depends	-9382
▁desires	-9383
▁dialect	-9384
▁divided	-9385
▁eclipse	-9386
▁emperor	-9387
▁equator	-9388
▁ethanol	-9389
▁experts	-9390
▁explode	-9391
▁explore	-9392
▁fasting	-9393
▁fathers	-9394
▁feather	-9395
▁highway	-9396
▁hormone	-9397
▁hottest	-9398
▁immoral	-9399
▁impacts	-9400
▁injured	-9401
▁insects	-9402
▁inspire	-9403
▁intrest	-9404
▁jogging	-9405
▁jupiter	-9406
▁kurdish	-9407
▁lasting	-9408
▁leather	-9409
▁magical	-9410
▁maharaj	-9411
▁mailing	-9412
▁managed	-9413
▁massage	-9414
▁mirrors	-9415
▁monitor	-9416
▁mothers	-9417
▁mystery	-9418
▁newtons	-9419
▁noticed	-9420
▁oneself	-9421
▁orchest	-9422
▁organis	-9423
▁outdoor	-9424
▁panties	-9425
▁partial	-9426
▁powered	-9427
▁pushing	-9428
▁quarter	-9429
▁readers	-9430
▁referen	-9431
▁regards	-9432
▁reputed	-9433
▁rolling	-9434
▁seattle	-9435
▁sectors	-9436
▁seeking	-9437
▁sensors	-9438
▁sibling	-9439
▁spatial	-9440
▁streams	-9441
▁surname	-9442
▁symbols	-9443
▁theatre	-9444
▁theists	-9445
▁thermal	-9446
▁thunder	-9447
▁tibetan	-9448
▁torture	-9449
▁trainer	-9450
▁trapped	-9451
▁travels	-9452
▁treason	-9453
▁trilogy	-9454
▁warrant	-9455
▁weights	-9456
▁zionist	-9457
americans	-9458
boyfriend	-9459
itionally	-9460
odynamics	-9461
▁africans	-9462
▁allotted	-9463
▁allowing	-9464
▁animated	-9465
▁armenian	-9466
▁aspirant	-9467
▁attracts	-9468
▁audition	-9469
▁avoiding	-9470
▁bacteria	-9471
▁banglore	-9472
▁blogging	-9473
▁campuses	-9474
▁capacity	-9475
▁churches	-9476
▁claiming	-9477
▁climbing	-9478
▁combined	-9479
▁consumer	-9480
▁creators	-9481
▁crossing	-9482
▁deadpool	-9483
▁decorate	-9484
▁deloitte	-9485
▁democrat	-9486
▁detailed	-9487
▁diameter	-9488
▁distinct	-9489
▁dropping	-9490
▁expenses	-9491
▁extended	-9492
▁feminist	-9493
▁focusing	-9494
▁founders	-9495
▁generate	-9496
▁genetics	-9497
▁guidance	-9498
▁guwahati	-9499
▁horizont	-9500
▁hundreds	-9501
▁ignoring	-9502
▁impacted	-9503
▁incident	-9504
▁includes	-9505
▁inherent	-9506
▁instance	-9507
▁israelis	-9508
▁journals	-9509
▁kejriwal	-9510
▁launched	-9511
▁mahindra	-9512
▁mainland	-9513
▁manifest	-9514
▁meetings	-9515
▁michigan	-9516
▁midnight	-9517
▁mistaken	-9518
▁moderate	-9519
▁motivate	-9520
▁muhammad	-9521
▁murderer	-9522
▁obsolete	-9523
▁orthodox	-9524
▁outdated	-9525
▁overwhel	-9526
▁packages	-9527
▁politely	-9528
▁princess	-9529
▁probably	-9530
▁promises	-9531
▁promoted	-9532
▁province	-9533
▁quantity	-9534
▁ramayana	-9535
▁referred	-9536
▁reincarn	-9537
▁rotating	-9538
▁sessions	-9539
▁socalled	-9540
▁societal	-9541
▁supplier	-9542
▁supports	-9543
▁throwing	-9544
▁traitors	-9545
▁trolling	-9546
▁tropical	-9547
▁unnecess	-9548
▁vertical	-9549
▁veterans	-9550
▁victoria	-9551
▁workshop	-9552
▁worrying	-9553
▁youtuber	-9554
▁zimbabwe	-9555
imensional	-9556
▁accenture	-9557
▁addictive	-9558
▁adventure	-9559
▁aerospace	-9560
▁automated	-9561
▁ayurvedic	-9562
▁breakfast	-9563
▁buildings	-9564
▁capacitor	-9565
▁castrated	-9566
▁centuries	-9567
▁cognizant	-9568
▁collected	-9569
▁committee	-9570
▁curvature	-9571
▁dictators	-9572
▁digestion	-9573
▁economies	-9574
▁economist	-9575
▁egyptians	-9576
▁encourage	-9577
▁enlighten	-9578
▁equations	-9579
▁everytime	-9580
▁fantasies	-9581
▁framework	-9582
▁hypocrisy	-9583
▁impeached	-9584
▁inorganic	-9585
▁insulting	-9586
▁invisible	-9587
▁irritated	-9588
▁isolation	-9589
▁jewellery	-9590
▁literally	-9591
▁malayalam	-9592
▁mentality	-9593
▁minecraft	-9594
▁molecular	-9595
▁municipal	-9596
▁musicians	-9597
▁mythology	-9598
▁narrative	-9599
▁numerical	-9600
▁obligated	-9601
▁obsession	-9602
▁oppressed	-9603
▁organisms	-9604
▁palestine	-9605
▁poisoning	-9606
▁portfolio	-9607
▁potassium	-9608
▁predators	-9609
▁pronounce	-9610
▁relevance	-9611
▁remaining	-9612
▁renewable	-9613
▁replacing	-9614
▁seemingly	-9615
▁sensation	-9616
▁sentences	-9617
▁signature	-9618
▁socialism	-9619
▁southeast	-9620
▁stupidity	-9621
▁succeeded	-9622
▁supported	-9623
▁surrender	-9624
▁symbiosis	-9625
▁tamilnadu	-9626
▁testicles	-9627
▁tutorials	-9628
▁typically	-9629
▁unlimited	-9630
▁unmarried	-9631
▁venezuela	-9632
▁ambassador	-9633
▁applicable	-9634
▁applicants	-9635
▁assistants	-9636
▁atrocities	-9637
▁attachment	-9638
▁azerbaijan	-9639
▁behavioral	-9640
▁chandigarh	-9641
▁commission	-9642
▁competitor	-9643
▁concerning	-9644
▁conscience	-9645
▁consistent	-9646
▁constraint	-9647
▁continuous	-9648
▁converting	-9649
▁curriculum	-9650
▁definitely	-9651
▁diplomatic	-9652
▁disgusting	-9653
▁homeopathy	-9654
▁homophobic	-9655
▁innovative	-9656
▁intolerant	-9657
▁introduced	-9658
▁irrational	-9659
▁irritating	-9660
▁journalism	-9661
▁legitimate	-9662
▁metallurgy	-9663
▁officially	-9664
▁peacefully	-9665
▁preferably	-9666
▁productive	-9667
▁projection	-9668
▁recruiting	-9669
▁references	-9670
▁reputation	-9671
▁retirement	-9672
▁ridiculous	-9673
▁stammering	-9674
▁strengthen	-9675
▁stretching	-9676
▁struggling	-9677
▁substances	-9678
▁substitute	-9679
▁supplement	-9680
▁unemployed	-9681
▁vegetables	-9682
▁zuckerberg	-9683
▁antidepress	-9684
▁antisemitic	-9685
▁approximate	-9686
▁atmospheric	-9687
▁bhubaneswar	-9688
▁billionaire	-9689
▁chlorophyll	-9690
▁comparative	-9691
▁concentrate	-9692
▁consultancy	-9693
▁controlling	-9694
▁departments	-9695
▁diffraction	-9696
▁efficiently	-9697
▁embarrassed	-9698
▁experiments	-9699
▁grandfather	-9700
▁institution	-9701
▁interaction	-9702
▁intercourse	-9703
▁invitations	-9704
▁involvement	-9705
▁marketplace	-9706
▁netherlands	-9707
▁potentially	-9708
▁represented	-9709
▁requirement	-9710
▁respiration	-9711
▁schizophren	-9712
▁smartphones	-9713
▁spreadsheet	-9714
▁supplements	-9715
▁technically	-9716
▁underground	-9717
▁bodybuilding	-9718
▁capabilities	-9719
▁conservation	-9720
▁continuously	-9721
▁corporations	-9722
▁deliberately	-9723
▁embarrassing	-9724
▁expectations	-9725
▁grandparents	-9726
▁institutions	-9727
▁interference	-9728
▁mechatronics	-9729
▁motivational	-9730
▁narcissistic	-9731
▁notification	-9732
▁postgraduate	-9733
▁psychologist	-9734
▁refrigerator	-9735
▁satisfaction	-9736
▁unattractive	-9737
▁congressional	-9738
▁contributions	-9739
▁distinguishes	-9740
▁inspirational	-9741
▁manufacturers	-9742
▁personalities	-9743
▁significantly	-9744
▁uncomfortable	-9745
▁certifications	-9746
▁classification	-9747
▁constitutional	-9748
▁discrimination	-9749
▁identification	-9750
▁implementation	-9751
▁qualifications	-9752
▁recommendation	-9753
▁specifications	-9754
▁transformation	-9755
13	-9756
23	-9757
27	-9758
31	-9759
51	-9760
aa	-9761
ec	-9762
fd	-9763
gb	-9764
gm	-9765
hl	-9766
ng	-9767
pm	-9768
sj	-9769
sr	-9770
tp	-9771
ua	-9772
vo	-9773
wd	-9774
wo	-9775
xs	-9776
za	-9777
zs	-9778
300	-9779
900	-9780
adi	-9781
ado	-9782
amy	-9783
anx	-9784
azi	-9785
bir	-9786
bly	-9787
bro	-9788
bur	-9789
bus	-9790
cam	-9791
cas	-9792
cip	-9793
ctu	-9794
ctv	-9795
cur	-9796
din	-9797
dum	-9798
esh	-9799
eve	-9800
gam	-9801
hib	-9802
hov	-9803
hru	-9804
hyd	-9805
ido	-9806
igo	-9807
inj	-9808
ios	-9809
ipt	-9810
irk	-9811
jah	-9812
jud	-9813
kal	-9814
kar	-9815
kia	-9816
kim	-9817
lar	-9818
lay	-9819
lds	-9820
lee	-9821
lon	-9822
mph	-9823
nar	-9824
nce	-9825
nia	-9826
nit	-9827
oda	-9828
ona	-9829
opl	-9830
opy	-9831
osc	-9832
osh	-9833
ost	-9834
oys	-9835
pay	-9836
pec	-9837
pex	-9838
ppy	-9839
rea	-9840
tha	-9841
thy	-9842
uan	-9843
uay	-9844
uce	-9845
uci	-9846
uff	-9847
ulc	-9848
ulu	-9849
vic	-9850
was	-9851
yst	-9852
zen	-9853
zor	-9854
▁47	-9855
▁59	-9856
▁72	-9857
▁78	-9858
▁84	-9859
▁bb	-9860
▁dd	-9861
▁fd	-9862
▁fx	-9863
▁gb	-9864
▁gt	-9865
▁ky	-9866
▁ln	-9867
▁lt	-9868
▁nj	-9869
▁oc	-9870
▁ry	-9871
▁sr	-9872
▁tn	-9873
▁tx	-9874
▁vr	-9875
▁wb	-9876
agan	-9877
aism	-9878
aksh	-9879
alis	-9880
andy	-9881
angh	-9882
anks	-9883
answ	-9884
appy	-9885
aria	-9886
arks	-9887
arms	-9888
asar	-9889
asis	-9890
atra	-9891
bels	-9892
bike	-9893
boot	-9894
bots	-9895
bury	-9896
cans	-9897
card	-9898
cers	-9899
cile	-9900
coln	-9901
cont	-9902
cott	-9903
cuss	-9904
dess	-9905
dest	-9906
dose	-9907
educ	-9908
emed	-9909
emen	-9910
erer	-9911
eros	-9912
fing	-9913
food	-9914
gary	-9915
giar	-9916
gill	-9917
hant	-9918
haps	-9919
hatt	-9920
hend	-9921
hene	-9922
hist	-9923
hydr	-9924
icep	-9925
idel	-9926
ifer	-9927
igas	-9928
igil	-9929
igur	-9930
ilit	-9931
ilst	-9932
inch	-9933
inda	-9934
inea	-9935
ingo	-9936
inth	-9937
iscu	-9938
itic	-9939
ixel	-9940
ixes	-9941
ixon	-9942
izer	-9943
izzy	-9944
keep	-9945
lete	-9946
long	-9947
mand	-9948
mare	-9949
mate	-9950
mill	-9951
nast	-9952
neum	-9953
obia	-9954
olit	-9955
onds	-9956
ongs	-9957
opic	-9958
oric	-9959
orig	-9960
oved	-9961
pean	-9962
pers	-9963
pson	-9964
qual	-9965
raft	-9966
raul	-9967
rets	-9968
riff	-9969
root	-9970
rots	-9971
rous	-9972
sell	-9973
ssed	-9974
tail	-9975
uate	-9976
ulpt	-9977
uman	-9978
uris	-9979
usal	-9980
wall	-9981
well	-9982
wich	-9983
yard	-9984
ymph	-9985
zzle	-9986
▁115	-9987
▁118	-9988
▁128	-9989
▁140	-9990
▁195	-9991
▁220	-9992
▁247	-9993
▁511	-9994
▁aak	-9995
▁aap	-9996
▁agg	-9997
▁aqu	-9998
▁arc	-9999
▁ark	-10000
▁ate	-10001
▁bak	-10002
▁bca	-10003
▁bim	-10004
▁bmw	-10005
▁bod	-10006
▁cin	-10007
▁clo	-10008
▁cma	-10009
▁coe	-10010
▁csc	-10011
▁dru	-10012
▁dyn	-10013
▁dys	-10014
▁edm	-10015
▁ell	-10016
▁ern	-10017
▁eru	-10018
▁esp	-10019
▁ets	-10020
▁ger	-10021
▁gil	-10022
▁gol	-10023
▁gpu	-10024
▁gut	-10025
▁hil	-10026
▁hiv	-10027
▁hoo	-10028
▁hub	-10029
▁hug	-10030
▁ibn	-10031
▁jay	-10032
▁jen	-10033
▁kan	-10034
▁kap	-10035
▁kgp	-10036
▁kin	-10037
▁kon	-10038
▁kos	-10039
▁ktm	-10040
▁lau	-10041
▁lis	-10042
▁lor	-10043
▁lud	-10044
▁lun	-10045
▁mbt	-10046
▁mig	-10047
▁mim	-10048
▁mnc	-10049
▁mue	-10050
▁nab	-10051
▁nac	-10052
▁nas	-10053
▁nbc	-10054
▁ncr	-10055
▁nir	-10056
▁nom	-10057
▁nou	-10058
▁nth	-10059
▁ola	-10060
▁pap	-10061
▁pee	-10062
▁pes	-10063
▁pgp	-10064
▁ply	-10065
▁pom	-10066
▁psu	-10067
▁pvc	-10068
▁ras	-10069
▁rig	-10070
▁rmo	-10071
▁ros	-10072
▁sav	-10073
▁sax	-10074
▁shr	-10075
▁sie	-10076
▁sip	-10077
▁ski	-10078
▁slo	-10079
▁sow	-10080
▁soy	-10081
▁syd	-10082
▁tak	-10083
▁tha	-10084
▁toe	-10085
▁uda	-10086
▁umb	-10087
▁unb	-10088
▁unh	-10089
▁unp	-10090
▁url	-10091
▁uts	-10092
▁vas	-10093
▁vin	-10094
▁vod	-10095
▁wsj	-10096
▁xrp	-10097
▁zen	-10098
acare	-10099
aceut	-10100
alled	-10101
aming	-10102
anasi	-10103
anded	-10104
ander	-10105
anese	-10106
anket	-10107
annes	-10108
antee	-10109
arath	-10110
astic	-10111
atile	-10112
avage	-10113
aziab	-10114
bally	-10115
built	-10116
certs	-10117
cible	-10118
close	-10119
cloud	-10120
ctive	-10121
duled	-10122
elect	-10123
engue	-10124
enium	-10125
erate	-10126
erves	-10127
esign	-10128
eters	-10129
gered	-10130
gment	-10131
hered	-10132
ician	-10133
icide	-10134
idays	-10135
ience	-10136
ilage	-10137
illes	-10138
indal	-10139
inded	-10140
inery	-10141
inian	-10142
iteee	-10143
ivism	-10144
learn	-10145
level	-10146
liest	-10147
lying	-10148
metic	-10149
niest	-10150
ogged	-10151
oning	-10152
orial	-10153
orous	-10154
osion	-10155
oured	-10156
owser	-10157
prove	-10158
psies	-10159
ptive	-10160
reens	-10161
riers	-10162
rough	-10163
scope	-10164
senal	-10165
ships	-10166
stall	-10167
style	-10168
tered	-10169
throp	-10170
ubers	-10171
ulent	-10172
ulsar	-10173
water	-10174
white	-10175
world	-10176
ystem	-10177
▁1890	-10178
▁1992	-10179
▁2008	-10180
▁2020	-10181
▁acca	-10182
▁adul	-10183
▁aest	-10184
▁aged	-10185
▁ages	-10186
▁aids	-10187
▁alch	-10188
▁appe	-10189
▁ardu	-10190
▁arth	-10191
▁arya	-10192
▁bacc	-10193
▁badm	-10194
▁bapt	-10195
▁barc	-10196
▁bibl	-10197
▁bite	-10198
▁blat	-10199
▁bold	-10200
▁bour	-10201
▁bsnl	-10202
▁bulb	-10203
▁bure	-10204
▁bush	-10205
▁caes	-10206
▁calm	-10207
▁caps	-10208
▁carb	-10209
▁cctv	-10210
▁chol	-10211
▁clan	-10212
▁cmat	-10213
▁cone	-10214
▁conn	-10215
▁cort	-10216
▁crap	-10217
▁dads	-10218
▁deaf	-10219
▁dell	-10220
▁dess	-10221
▁dhar	-10222
▁dots	-10223
▁dron	-10224
▁drum	-10225
▁dslr	-10226
▁dunk	-10227
▁ease	-10228
▁envy	-10229
▁erad	-10230
▁eric	-10231
▁fiit	-10232
▁fist	-10233
▁flav	-10234
▁flop	-10235
▁flux	-10236
▁fork	-10237
▁glor	-10238
▁glut	-10239
▁gmat	-10240
▁goat	-10241
▁goku	-10242
▁gome	-10243
▁goog	-10244
▁gore	-10245
▁grab	-10246
▁gren	-10247
▁grip	-10248
▁hary	-10249
▁hash	-10250
▁hdfc	-10251
▁hood	-10252
▁hows	-10253
▁impl	-10254
▁intr	-10255
▁isab	-10256
▁isot	-10257
▁jams	-10258
▁jazz	-10259
▁kang	-10260
▁ketu	-10261
▁kitt	-10262
▁lact	-10263
▁lane	-10264
▁lara	-10265
▁leaf	-10266
▁leia	-10267
▁ling	-10268
▁lobb	-10269
▁melo	-10270
▁meme	-10271
▁mend	-10272
▁mesh	-10273
▁mira	-10274
▁neil	-10275
▁node	-10276
▁nuts	-10277
▁oral	-10278
▁pair	-10279
▁palm	-10280
▁pals	-10281
▁pard	-10282
▁pays	-10283
▁peep	-10284
▁perm	-10285
▁phos	-10286
▁pine	-10287
▁pont	-10288
▁proc	-10289
▁quiz	-10290
▁rama	-10291
▁rats	-10292
▁rede	-10293
▁rows	-10294
▁rust	-10295
▁ruth	-10296
▁sail	-10297
▁scot	-10298
▁scro	-10299
▁seiz	-10300
▁serb	-10301
▁sher	-10302
▁shoe	-10303
▁sink	-10304
▁sins	-10305
▁slim	-10306
▁slog	-10307
▁sole	-10308
▁sons	-10309
▁soph	-10310
▁spam	-10311
▁stro	-10312
▁sulf	-10313
▁taco	-10314
▁taxi	-10315
▁tefl	-10316
▁ther	-10317
▁torn	-10318
▁tors	-10319
▁trap	-10320
▁trim	-10321
▁tumb	-10322
▁vape	-10323
▁vert	-10324
▁vets	-10325
▁yoga	-10326
achine	-10327
anjali	-10328
antine	-10329
arcity	-10330
arrhea	-10331
atible	-10332
cedent	-10333
ctrine	-10334
curity	-10335
erated	-10336
gemini	-10337
icking	-10338
ilever	-10339
inates	-10340
inders	-10341
isites	-10342
itutes	-10343
ivered	-10344
listed	-10345
mation	-10346
mbling	-10347
ocated	-10348
online	-10349
oplast	-10350
oxious	-10351
person	-10352
repres	-10353
resses	-10354
rolled	-10355
ructor	-10356
uctant	-10357
ulator	-10358
walker	-10359
▁accum	-10360
▁adolf	-10361
▁agend	-10362
▁aimed	-10363
▁alexa	-10364
▁alleg	-10365
▁amity	-10366
▁anten	-10367
▁asper	-10368
▁auton	-10369
▁azure	-10370
▁bandw	-10371
▁benif	-10372
▁bever	-10373
▁bitch	-10374
▁blast	-10375
▁bleed	-10376
▁blunt	-10377
▁bombs	-10378
▁boobs	-10379
▁brass	-10380
▁breat	-10381
▁brick	-10382
▁brist	-10383
▁bully	-10384
▁bunch	-10385
▁buses	-10386
▁buyer	-10387
▁calam	-10388
▁carbo	-10389
▁cease	-10390
▁chord	-10391
▁chose	-10392
▁chris	-10393
▁clown	-10394
▁coron	-10395
▁cough	-10396
▁cours	-10397
▁craft	-10398
▁creed	-10399
▁crowd	-10400
▁crown	-10401
▁czech	-10402
▁davis	-10403
▁decor	-10404
▁defic	-10405
▁digit	-10406
▁drops	-10407
▁eddie	-10408
▁eight	-10409
▁embar	-10410
▁emerg	-10411
▁enfor	-10412
▁erase	-10413
▁escal	-10414
▁expla	-10415
▁expos	-10416
▁extro	-10417
▁fedex	-10418
▁fifth	-10419
▁filed	-10420
▁filip	-10421
▁finds	-10422
▁flaws	-10423
▁folks	-10424
▁forex	-10425
▁fries	-10426
▁gains	-10427
▁gases	-10428
▁gates	-10429
▁ghana	-10430
▁globe	-10431
▁grace	-10432
▁grain	-10433
▁harsh	-10434
▁hawai	-10435
▁hobby	-10436
▁hosts	-10437
▁inequ	-10438
▁infra	-10439
▁inher	-10440
▁intra	-10441
▁irreg	-10442
▁jammu	-10443
▁jerry	-10444
▁karna	-10445
▁kills	-10446
▁koran	-10447
▁kumar	-10448
▁kurds	-10449
▁label	-10450
▁layer	-10451
▁lions	-10452
▁logan	-10453
▁lover	-10454
▁lucas	-10455
▁lucid	-10456
▁lucky	-10457
▁lymph	-10458
▁marut	-10459
▁megat	-10460
▁membr	-10461
▁memes	-10462
▁messi	-10463
▁meter	-10464
▁miami	-10465
▁milky	-10466
▁modes	-10467
▁moham	-10468
▁monit	-10469
▁moore	-10470
▁moron	-10471
▁nehru	-10472
▁nikon	-10473
▁nixon	-10474
▁nmims	-10475
▁nokia	-10476
▁nonph	-10477
▁nonve	-10478
▁oprah	-10479
▁oscar	-10480
▁overt	-10481
▁oxide	-10482
▁panda	-10483
▁parks	-10484
▁percy	-10485
▁pione	-10486
▁pixel	-10487
▁pneum	-10488
▁poker	-10489
▁pound	-10490
▁ramad	-10491
▁rider	-10492
▁ringt	-10493
▁rogue	-10494
▁roots	-10495
▁sabha	-10496
▁sachs	-10497
▁satan	-10498
▁scars	-10499
▁semen	-10500
▁sends	-10501
▁seoul	-10502
▁seper	-10503
▁shark	-10504
▁sigma	-10505
▁sorts	-10506
▁spani	-10507
▁spare	-10508
▁spell	-10509
▁spies	-10510
▁spike	-10511
▁spine	-10512
▁stamp	-10513
▁stark	-10514
▁stoic	-10515
▁stove	-10516
▁strum	-10517
▁sunny	-10518
▁tasks	-10519
▁taxon	-10520
▁tides	-10521
▁tires	-10522
▁tirup	-10523
▁tower	-10524
▁trace	-10525
▁trick	-10526
▁troop	-10527
▁tuber	-10528
▁tummy	-10529
▁tunis	-10530
▁ultra	-10531
▁uncle	-10532
▁upgra	-10533
▁usual	-10534
▁utter	-10535
▁vader	-10536
▁valve	-10537
▁wbjee	-10538
▁wheat	-10539
▁wrist	-10540
angered	-10541
aziabad	-10542
berries	-10543
ciously	-10544
connect	-10545
ersonal	-10546
esterol	-10547
fulness	-10548
glasses	-10549
induced	-10550
inistic	-10551
itively	-10552
itivity	-10553
jective	-10554
opathic	-10555
plicate	-10556
ricular	-10557
stalled	-10558
ulative	-10559
uropean	-10560
written	-10561
▁201819	-10562
▁aborig	-10563
▁absent	-10564
▁acquis	-10565
▁admire	-10566
▁advent	-10567
▁airtel	-10568
▁alaska	-10569
▁anthem	-10570
▁appeal	-10571
▁artery	-10572
▁arvind	-10573
▁ascend	-10574
▁aspect	-10575
▁asympt	-10576
▁bhagat	-10577
▁bleach	-10578
▁borrow	-10579
▁buddha	-10580
▁cables	-10581
▁calend	-10582
▁cannon	-10583
▁capita	-10584
▁cardio	-10585
▁carpet	-10586
▁citing	-10587
▁clause	-10588
▁clever	-10589
▁commod	-10590
▁confed	-10591
▁conson	-10592
▁copied	-10593
▁costly	-10594
▁cotton	-10595
▁craigs	-10596
▁daniel	-10597
▁danish	-10598
▁deadly	-10599
▁dealer	-10600
▁defect	-10601
▁dengue	-10602
▁depict	-10603
▁drinks	-10604
▁durant	-10605
▁edward	-10606
▁enroll	-10607
▁entity	-10608
▁exclus	-10609
▁excuse	-10610
▁exempt	-10611
▁fairly	-10612
▁filmed	-10613
▁finals	-10614
▁flower	-10615
▁fridge	-10616
▁fusion	-10617
▁gained	-10618
▁gamers	-10619
▁garlic	-10620
▁genome	-10621
▁ghosts	-10622
▁ginger	-10623
▁gotten	-10624
▁grader	-10625
▁guinea	-10626
▁handic	-10627
▁heated	-10628
▁hebrew	-10629
▁heroes	-10630
▁himher	-10631
▁hockey	-10632
▁houses	-10633
▁humane	-10634
▁hunger	-10635
▁iitjee	-10636
▁illust	-10637
▁incarc	-10638
▁indore	-10639
▁infant	-10640
▁injury	-10641
▁insert	-10642
▁invade	-10643
▁ironic	-10644
▁ivanka	-10645
▁jindal	-10646
▁kenyan	-10647
▁landed	-10648
▁latino	-10649
▁legacy	-10650
▁legend	-10651
▁lenovo	-10652
▁lethal	-10653
▁liking	-10654
▁locked	-10655
▁logout	-10656
▁losses	-10657
▁lovers	-10658
▁luther	-10659
▁madras	-10660
▁magent	-10661
▁mainly	-10662
▁majors	-10663
▁manual	-10664
▁mascul	-10665
▁mature	-10666
▁mcgill	-10667
▁merlin	-10668
▁microw	-10669
▁minded	-10670
▁molest	-10671
▁mormon	-10672
▁mughal	-10673
▁museum	-10674
▁napole	-10675
▁neglig	-10676
▁notify	-10677
▁oceans	-10678
▁opened	-10679
▁opting	-10680
▁oregon	-10681
▁oscill	-10682
▁outfit	-10683
▁paints	-10684
▁paypal	-10685
▁pestic	-10686
▁photon	-10687
▁plasma	-10688
▁postal	-10689
▁prejud	-10690
▁primar	-10691
▁proton	-10692
▁pulsar	-10693
▁purple	-10694
▁queens	-10695
▁quoras	-10696
▁rabbit	-10697
▁rabies	-10698
▁racing	-10699
▁reacts	-10700
▁reader	-10701
▁reflex	-10702
▁resent	-10703
▁reward	-10704
▁ripple	-10705
▁rising	-10706
▁rotate	-10707
▁rounds	-10708
▁rubber	-10709
▁rulers	-10710
▁salman	-10711
▁sculpt	-10712
▁sentim	-10713
▁shades	-10714
▁shells	-10715
▁sikkim	-10716
▁slowed	-10717
▁sooner	-10718
▁speaks	-10719
▁spider	-10720
▁spying	-10721
▁stabil	-10722
▁statue	-10723
▁storms	-10724
▁submar	-10725
▁superp	-10726
▁swedes	-10727
▁syrian	-10728
▁tensor	-10729
▁tested	-10730
▁titles	-10731
▁topper	-10732
▁tossed	-10733
▁toyota	-10734
▁traine	-10735
▁trains	-10736
▁treats	-10737
▁trevor	-10738
▁trophy	-10739
▁turing	-10740
▁unborn	-10741
▁unpaid	-10742
▁unreal	-10743
▁upvote	-10744
▁viswan	-10745
▁viteee	-10746
▁vulner	-10747
▁walker	-10748
▁washer	-10749
▁weekly	-10750
▁whilst	-10751
▁wishes	-10752
▁wolver	-10753
▁worthy	-10754
▁yester	-10755
▁zombie	-10756
assembly	-10757
computer	-10758
ferences	-10759
function	-10760
gressive	-10761
hemistry	-10762
ineering	-10763
ocentric	-10764
odynamic	-10765
osterone	-10766
ountered	-10767
standing	-10768
uttering	-10769
ynthesis	-10770
▁adverse	-10771
▁affects	-10772
▁alleged	-10773
▁alltime	-10774
▁analyze	-10775
▁anatomy	-10776
▁anthrop	-10777
▁arabian	-10778
▁arrival	-10779
▁arsenal	-10780
▁atheism	-10781
▁avoided	-10782
▁babylon	-10783
▁barrier	-10784
▁belongs	-10785
▁beloved	-10786
▁bicycle	-10787
▁billing	-10788
▁blanket	-10789
▁blaster	-10790
▁borders	-10791
▁boredom	-10792
▁bowling	-10793
▁brahmin	-10794
▁bravery	-10795
▁bridges	-10796
▁bschool	-10797
▁capture	-10798
▁cartoon	-10799
▁celcius	-10800
▁charity	-10801
▁choices	-10802
▁chromos	-10803
▁circles	-10804
▁clarity	-10805
▁classic	-10806
▁clicked	-10807
▁colored	-10808
▁colours	-10809
▁commits	-10810
▁compact	-10811
▁console	-10812
▁council	-10813
▁craving	-10814
▁creator	-10815
▁cruelty	-10816
▁dancing	-10817
▁dataset	-10818
▁decline	-10819
▁delayed	-10820
▁depress	-10821
▁descend	-10822
▁diagram	-10823
▁distill	-10824
▁distort	-10825
▁dragons	-10826
▁dropout	-10827
▁dropper	-10828
▁dumping	-10829
▁durable	-10830
▁dynasty	-10831
▁earthqu	-10832
▁edition	-10833
▁enfield	-10834
▁enzymes	-10835
▁erosion	-10836
▁evolved	-10837
▁exagger	-10838
▁exposed	-10839
▁extinct	-10840
▁extract	-10841
▁farming	-10842
▁fiitjee	-10843
▁fingern	-10844
▁flexbox	-10845
▁foolish	-10846
▁futures	-10847
▁gadgets	-10848
▁goldman	-10849
▁grammat	-10850
▁grocery	-10851
▁gymnast	-10852
▁gypsies	-10853
▁habitat	-10854
▁happily	-10855
▁harvest	-10856
▁hawking	-10857
▁healing	-10858
▁helicop	-10859
▁hitting	-10860
▁holders	-10861
▁holland	-10862
▁hunters	-10863
▁hydraul	-10864
▁hygiene	-10865
▁imposed	-10866
▁indoctr	-10867
▁instant	-10868
▁invited	-10869
▁judaism	-10870
▁lawsuit	-10871
▁laymans	-10872
▁leasing	-10873
▁lesbian	-10874
▁lincoln	-10875
▁linking	-10876
▁listing	-10877
▁loyalty	-10878
▁lucknow	-10879
▁malaysi	-10880
▁marathi	-10881
▁melania	-10882
▁melting	-10883
▁metabol	-10884
▁millenn	-10885
▁minimal	-10886
▁mixture	-10887
▁monster	-10888
▁mueller	-10889
▁neglect	-10890
▁notable	-10891
▁oneplus	-10892
▁optical	-10893
▁optimal	-10894
▁outsour	-10895
▁pandits	-10896
▁perhaps	-10897
▁persian	-10898
▁phrases	-10899
▁picking	-10900
▁placebo	-10901
▁plagiar	-10902
▁planned	-10903
▁plugged	-10904
▁prayers	-10905
▁premier	-10906
▁prepaid	-10907
▁prerequ	-10908
▁prescri	-10909
▁printer	-10910
▁pronoun	-10911
▁pumping	-10912
▁qualify	-10913
▁queries	-10914
▁quicker	-10915
▁raising	-10916
▁rapidly	-10917
▁rappers	-10918
▁rebuild	-10919
▁recycle	-10920
▁refuses	-10921
▁regions	-10922
▁restric	-10923
▁rewards	-10924
▁romania	-10925
▁roughly	-10926
▁russias	-10927
▁sadness	-10928
▁screens	-10929
▁sexiest	-10930
▁shaking	-10931
▁shaving	-10932
▁shelter	-10933
▁shipped	-10934
▁shivaji	-10935
▁sidewal	-10936
▁signals	-10937
▁singers	-10938
▁sisters	-10939
▁stanley	-10940
▁statues	-10941
▁strikes	-10942
▁strings	-10943
▁submiss	-10944
▁sucking	-10945
▁sulphur	-10946
▁superst	-10947
▁surveys	-10948
▁tattoos	-10949
▁textile	-10950
▁theorem	-10951
▁tobacco	-10952
▁tonight	-10953
▁torrent	-10954
▁touched	-10955
▁touches	-10956
▁trailer	-10957
▁udaipur	-10958
▁unhappy	-10959
▁updated	-10960
▁upvotes	-10961
▁uranium	-10962
▁useless	-10963
▁utility	-10964
▁vaginal	-10965
▁valency	-10966
▁variety	-10967
▁venture	-10968
▁vikings	-10969
▁viruses	-10970
▁warning	-10971
▁warrior	-10972
▁20172018	-10973
▁admitted	-10974
▁adoption	-10975
▁alkaline	-10976
▁alliance	-10977
▁apparent	-10978
▁appeared	-10979
▁aspiring	-10980
▁avengers	-10981
▁backward	-10982
▁bahubali	-10983
▁balanced	-10984
▁bathroom	-10985
▁believed	-10986
▁betrayed	-10987
▁biblical	-10988
▁billions	-10989
▁bloggers	-10990
▁brushing	-10991
▁brutally	-10992
▁bulgaria	-10993
▁bullying	-10994
▁chairman	-10995
▁challeng	-10996
▁chapters	-10997
▁chatbots	-10998
▁chickens	-10999
▁chloride	-11000
▁circuits	-11001
▁cleavage	-11002
▁colonies	-11003
▁comedian	-11004
▁commonly	-11005
▁communal	-11006
▁companys	-11007
▁complain	-11008
▁confront	-11009
▁consists	-11010
▁contents	-11011
▁contrast	-11012
▁counting	-11013
▁coverage	-11014
▁covering	-11015
▁coworker	-11016
▁craziest	-11017
▁deceased	-11018
▁declined	-11019
▁deducted	-11020
▁defeated	-11021
▁deployed	-11022
▁destined	-11023
▁detected	-11024
▁deterior	-11025
▁diarrhea	-11026
▁directed	-11027
▁disagree	-11028
▁district	-11029
▁dividing	-11030
▁doctrine	-11031
▁dominate	-11032
▁dreamers	-11033
▁dreaming	-11034
▁dynamics	-11035
▁egyptian	-11036
▁elevator	-11037
▁estimate	-11038
▁evaluate	-11039
▁eyesight	-11040
▁feasible	-11041
▁feminine	-11042
▁firearms	-11043
▁floating	-11044
▁forensic	-11045
▁founding	-11046
▁freezing	-11047
▁funniest	-11048
▁gambling	-11049
▁gasoline	-11050
▁generous	-11051
▁globally	-11052
▁gratuity	-11053
▁handsome	-11054
▁historic	-11055
▁holidays	-11056
▁homeland	-11057
▁homemade	-11058
▁ideology	-11059
▁immature	-11060
▁immunity	-11061
▁imprison	-11062
▁incoming	-11063
▁insulted	-11064
▁invested	-11065
▁leftists	-11066
▁leverage	-11067
▁lobbying	-11068
▁logistic	-11069
▁massacre	-11070
▁maturity	-11071
▁measured	-11072
▁medicare	-11073
▁memorial	-11074
▁metallic	-11075
▁missions	-11076
▁misunder	-11077
▁monetary	-11078
▁mongolia	-11079
▁montreal	-11080
▁mortgage	-11081
▁openings	-11082
▁oriented	-11083
▁parkland	-11084
▁patience	-11085
▁payments	-11086
▁piercing	-11087
▁predator	-11088
▁predomin	-11089
▁printing	-11090
▁priority	-11091
▁profound	-11092
▁promised	-11093
▁proposed	-11094
▁proteins	-11095
▁protests	-11096
▁protocol	-11097
▁punished	-11098
▁quickest	-11099
▁quitting	-11100
▁randomly	-11101
▁redesign	-11102
▁repeated	-11103
▁reserved	-11104
▁rohingya	-11105
▁settling	-11106
▁shakespe	-11107
▁shifting	-11108
▁shipping	-11109
▁siblings	-11110
▁simplest	-11111
▁skipping	-11112
▁spartans	-11113
▁speeding	-11114
▁spinning	-11115
▁substant	-11116
▁surgical	-11117
▁survivor	-11118
▁sympathy	-11119
▁teleport	-11120
▁tendency	-11121
▁terminal	-11122
▁timeline	-11123
▁tortured	-11124
▁touching	-11125
▁tracking	-11126
▁troubles	-11127
▁updating	-11128
▁varanasi	-11129
▁versions	-11130
▁warrants	-11131
▁warriors	-11132
▁wildlife	-11133
▁wrestler	-11134
ominations	-11135
▁advisable	-11136
▁aftermath	-11137
▁albanians	-11138
▁allergies	-11139
▁allowance	-11140
▁aluminium	-11141
▁ancestors	-11142
▁appointed	-11143
▁aspergers	-11144
▁aspirants	-11145
▁assassins	-11146
▁attempted	-11147
▁backstory	-11148
▁backwards	-11149
▁badminton	-11150
▁bengaluru	-11151
▁broadband	-11152
▁capgemini	-11153
▁caribbean	-11154
▁cartilage	-11155
▁civilians	-11156
▁classroom	-11157
▁cleansing	-11158
▁colleague	-11159
▁conductor	-11160
▁continued	-11161
▁contracts	-11162
▁converter	-11163
▁creatures	-11164
▁delicious	-11165
▁delivered	-11166
▁detective	-11167
▁diagnosis	-11168
▁directory	-11169
▁discovery	-11170
▁dishonest	-11171
▁dissolved	-11172
▁divisions	-11173
▁duplicate	-11174
▁ejaculate	-11175
▁electroly	-11176
▁emergency	-11177
▁encounter	-11178
▁enjoyable	-11179
▁excellent	-11180
▁excluding	-11181
▁exemption	-11182
▁financing	-11183
▁ghaziabad	-11184
▁gradually	-11185
▁guarantee	-11186
▁healthier	-11187
▁himalayan	-11188
▁hispanics	-11189
▁horoscope	-11190
▁impressed	-11191
▁incorrect	-11192
▁increases	-11193
▁inflation	-11194
▁installed	-11195
▁instances	-11196
▁instantly	-11197
▁integrity	-11198
▁intuition	-11199
▁inventory	-11200
▁irregular	-11201
▁lightning	-11202
▁machinery	-11203
▁magnitude	-11204
▁memorable	-11205
▁mongolian	-11206
▁movements	-11207
▁neighbors	-11208
▁nightmare	-11209
▁norwegian	-11210
▁obamacare	-11211
▁officials	-11212
▁opponents	-11213
▁originate	-11214
▁packaging	-11215
▁passenger	-11216
▁passwords	-11217
▁patanjali	-11218
▁penetrate	-11219
▁producing	-11220
▁recipient	-11221
▁recognise	-11222
▁reconcile	-11223
▁reduction	-11224
▁referring	-11225
▁reluctant	-11226
▁rendering	-11227
▁replicate	-11228
▁returning	-11229
▁sanctions	-11230
▁scheduled	-11231
▁screaming	-11232
▁sectional	-11233
▁sexuality	-11234
▁skywalker	-11235
▁softwares	-11236
▁spreading	-11237
▁stability	-11238
▁stressful	-11239
▁substance	-11240
▁suppliers	-11241
▁suspended	-11242
▁symbolism	-11243
▁targeting	-11244
▁teachings	-11245
▁tennessee	-11246
▁theocracy	-11247
▁titration	-11248
▁touristic	-11249
▁traveller	-11250
▁treadmill	-11251
▁triggered	-11252
▁uncertain	-11253
▁unexplain	-11254
▁universal	-11255
▁vacations	-11256
▁variables	-11257
▁vibration	-11258
▁victorian	-11259
▁violation	-11260
▁weightage	-11261
▁witnesses	-11262
▁wonderful	-11263
▁wondering	-11264
▁yesterday	-11265
▁youtubers	-11266
▁accessible	-11267
▁admissions	-11268
▁antisocial	-11269
▁appreciate	-11270
▁architects	-11271
▁assistance	-11272
▁bankruptcy	-11273
▁borderline	-11274
▁boyfriends	-11275
▁capacitors	-11276
▁capitalist	-11277
▁categories	-11278
▁communists	-11279
▁compassion	-11280
▁compatible	-11281
▁complexity	-11282
▁compliment	-11283
▁compromise	-11284
▁continuity	-11285
▁crossdress	-11286
▁currencies	-11287
▁derivative	-11288
▁developers	-11289
▁difficulty	-11290
▁elementary	-11291
▁endangered	-11292
▁enterprise	-11293
▁federation	-11294
▁frequently	-11295
▁functional	-11296
▁graduating	-11297
▁horizontal	-11298
▁hurricanes	-11299
▁impressive	-11300
▁indirectly	-11301
▁inequality	-11302
▁inevitable	-11303
▁influences	-11304
▁inherently	-11305
▁insecurity	-11306
▁intentions	-11307
▁internally	-11308
▁inventions	-11309
▁invitation	-11310
▁journalist	-11311
▁loneliness	-11312
▁navigation	-11313
▁oppression	-11314
▁parameters	-11315
▁pedophilia	-11316
▁photograph	-11317
▁physicists	-11318
▁physiology	-11319
▁preferable	-11320
▁procedures	-11321
▁prosecuted	-11322
▁purchasing	-11323
▁quantities	-11324
▁recruiters	-11325
▁referendum	-11326
▁reflection	-11327
▁relativity	-11328
▁responding	-11329
▁salesforce	-11330
▁settlement	-11331
▁sleeveless	-11332
▁statements	-11333
▁stationary	-11334
▁stereotype	-11335
▁structural	-11336
▁suspicious	-11337
▁transplant	-11338
▁understood	-11339
▁wrongfully	-11340
▁adaptations	-11341
▁affirmative	-11342
▁allegations	-11343
▁appointment	-11344
▁approaching	-11345
▁attractions	-11346
▁australians	-11347
▁cholesterol	-11348
▁circulating	-11349
▁complaining	-11350
▁contributed	-11351
▁credentials	-11352
▁demographic	-11353
▁destruction	-11354
▁disappeared	-11355
▁distinguish	-11356
▁documentary	-11357
▁eligibility	-11358
▁encountered	-11359
▁fascinating	-11360
▁flexibility	-11361
▁freelancing	-11362
▁friendships	-11363
▁homosexuals	-11364
▁hospitality	-11365
▁impeachment	-11366
▁inefficient	-11367
▁legislation	-11368
▁maintaining	-11369
▁medications	-11370
▁partnership	-11371
▁penetration	-11372
▁populations	-11373
▁questioning	-11374
▁radioactive	-11375
▁selectively	-11376
▁settlements	-11377
▁singaporean	-11378
▁surrounding	-11379
▁sustainable	-11380
▁transcripts	-11381
▁transformer	-11382
▁trustworthy	-11383
▁understands	-11384
▁antisemitism	-11385
▁astrological	-11386
▁astrophysics	-11387
▁billionaires	-11388
▁biochemistry	-11389
▁championship	-11390
▁counterparts	-11391
▁dictatorship	-11392
▁implications	-11393
▁northeastern	-11394
▁photographer	-11395
▁pornographic	-11396
▁prescription	-11397
▁quantitative	-11398
▁scandinavian	-11399
▁supernatural	-11400
▁testosterone	-11401
▁transactions	-11402
▁approximately	-11403
▁assassination	-11404
▁collaboration	-11405
▁embarrassment	-11406
▁enlightenment	-11407
▁entrepreneurs	-11408
▁globalization	-11409
▁notifications	-11410
▁physiotherapy	-11411
▁prerequisites	-11412
▁reincarnation	-11413
▁strategically	-11414
▁technological	-11415
▁administrative	-11416
▁characteristic	-11417
▁correspondence	-11418
▁mathematicians	-11419
▁misconceptions	-11420
▁photosynthesis	-11421
▁professionally	-11422
▁procrastination	-11423
09	-11424
34	-11425
39	-11426
41	-11427
52	-11428
85	-11429
bf	-11430
bp	-11431
dd	-11432
eu	-11433
fm	-11434
fr	-11435
gt	-11436
hs	-11437
sl	-11438
vp	-11439
vs	-11440
wt	-11441
ye	-11442
aar	-11443
aba	-11444
aca	-11445
acc	-11446
ahu	-11447
aki	-11448
aro	-11449
aux	-11450
awn	-11451
bas	-11452
bat	-11453
bek	-11454
bul	-11455
ctg	-11456
cun	-11457
dam	-11458
das	-11459
dem	-11460
dge	-11461
dog	-11462
efl	-11463
ema	-11464
enh	-11465
eta	-11466
etw	-11467
eze	-11468
fac	-11469
ffy	-11470
gae	-11471
gie	-11472
god	-11473
gpt	-11474
has	-11475
his	-11476
hot	-11477
iom	-11478
ipo	-11479
ipu	-11480
iro	-11481
iru	-11482
isp	-11483
isy	-11484
itu	-11485
jas	-11486
lav	-11487
lpa	-11488
mal	-11489
mil	-11490
mma	-11491
nty	-11492
oat	-11493
ocy	-11494
odb	-11495
odh	-11496
oen	-11497
oet	-11498
oin	-11499
gp	-11500
np	-11501
eds	-11502
ois	-11503
ola	-11504
oli	-11505
olt	-11506
osu	-11507
osy	-11508
oto	-11509
oxy	-11510
par	-11511
pic	-11512
pot	-11513
pri	-11514
pta	-11515
qwl	-11516
raj	-11517
rat	-11518
rix	-11519
rus	-11520
sto	-11521
sty	-11522
sur	-11523
tan	-11524
thm	-11525
ths	-11526
udi	-11527
udy	-11528
uin	-11529
ule	-11530
uri	-11531
uty	-11532
who	-11533
yam	-11534
yon	-11535
zeb	-11536
zes	-11537
▁00	-11538
▁49	-11539
▁54	-11540
▁57	-11541
▁74	-11542
▁98	-11543
▁ae	-11544
▁dw	-11545
▁dx	-11546
▁fc	-11547
▁fm	-11548
▁gd	-11549
▁gw	-11550
▁hu	-11551
▁ki	-11552
▁kw	-11553
▁mn	-11554
▁mt	-11555
▁np	-11556
▁qa	-11557
▁rc	-11558
▁rm	-11559
▁sj	-11560
▁tc	-11561
▁uw	-11562
▁ux	-11563
abet	-11564
acob	-11565
adel	-11566
adim	-11567
ahaw	-11568
aiya	-11569
akti	-11570
amir	-11571
amsh	-11572
angs	-11573
anut	-11574
aphy	-11575
ardi	-11576
aret	-11577
asia	-11578
atas	-11579
athi	-11580
atme	-11581
avat	-11582
aved	-11583
aver	-11584
avid	-11585
axal	-11586
bait	-11587
bang	-11588
benz	-11589
bern	-11590
best	-11591
bite	-11592
burg	-11593
cana	-11594
cinn	-11595
cker	-11596
conn	-11597
cons	-11598
corn	-11599
bin	-11600
eto	-11601
iko	-11602
iza	-11603
typ	-11604
beat	-11605
bral	-11606
cuff	-11607
ders	-11608
dily	-11609
dles	-11610
does	-11611
eded	-11612
eing	-11613
ergy	-11614
este	-11615
ette	-11616
etts	-11617
fits	-11618
foot	-11619
fred	-11620
gcse	-11621
gent	-11622
gins	-11623
have	-11624
help	-11625
hens	-11626
heta	-11627
hett	-11628
hill	-11629
hire	-11630
hore	-11631
hots	-11632
iary	-11633
icor	-11634
idth	-11635
iece	-11636
iens	-11637
iere	-11638
ifax	-11639
igen	-11640
ildo	-11641
ilib	-11642
inos	-11643
ipal	-11644
iper	-11645
irus	-11646
ista	-11647
ivar	-11648
izag	-11649
izon	-11650
jack	-11651
kell	-11652
kill	-11653
kini	-11654
kins	-11655
kmon	-11656
krit	-11657
lash	-11658
laws	-11659
lest	-11660
llar	-11661
lled	-11662
lles	-11663
loem	-11664
loid	-11665
lord	-11666
mann	-11667
mond	-11668
moon	-11669
nuts	-11670
ocum	-11671
offs	-11672
ogue	-11673
oked	-11674
okes	-11675
olia	-11676
olid	-11677
omic	-11678
onex	-11679
onge	-11680
orex	-11681
otas	-11682
oton	-11683
ouri	-11684
pace	-11685
pain	-11686
pals	-11687
past	-11688
pert	-11689
phan	-11690
pher	-11691
phia	-11692
plex	-11693
ptel	-11694
race	-11695
rage	-11696
rams	-11697
rane	-11698
reed	-11699
iq	-11700
oz	-11701
cca	-11702
mah	-11703
▁89	-11704
iban	-11705
ibar	-11706
pton	-11707
rers	-11708
rive	-11709
ryan	-11710
seed	-11711
shit	-11712
sinx	-11713
stat	-11714
stay	-11715
step	-11716
tics	-11717
uala	-11718
uded	-11719
uish	-11720
ulet	-11721
umen	-11722
umni	-11723
unks	-11724
uous	-11725
uper	-11726
uple	-11727
vast	-11728
warf	-11729
wins	-11730
witz	-11731
wolf	-11732
ylum	-11733
yson	-11734
zuki	-11735
▁110	-11736
▁130	-11737
▁320	-11738
▁325	-11739
▁330	-11740
▁350	-11741
▁410	-11742
▁510	-11743
▁800	-11744
▁900	-11745
▁910	-11746
▁aar	-11747
▁abd	-11748
▁ace	-11749
▁ack	-11750
▁aka	-11751
▁akh	-11752
▁ald	-11753
▁alp	-11754
▁als	-11755
▁amc	-11756
▁ank	-11757
▁asl	-11758
▁aso	-11759
▁aur	-11760
▁bbc	-11761
▁bhk	-11762
▁bis	-11763
▁blu	-11764
▁bou	-11765
▁cds	-11766
▁chi	-11767
▁cob	-11768
▁cpl	-11769
▁crm	-11770
▁csr	-11771
▁cto	-11772
▁cus	-11773
▁cvc	-11774
▁dbs	-11775
▁deh	-11776
▁doc	-11777
▁dot	-11778
▁dow	-11779
▁dtu	-11780
▁dui	-11781
▁eag	-11782
▁ecs	-11783
▁emc	-11784
▁emi	-11785
▁enf	-11786
▁eul	-11787
▁exo	-11788
▁fis	-11789
▁fms	-11790
▁fps	-11791
▁gel	-11792
▁gis	-11793
▁git	-11794
▁gla	-11795
▁gop	-11796
▁gul	-11797
▁hey	-11798
▁hou	-11799
aha	-11800
bio	-11801
mov	-11802
nik	-11803
prop	-11804
rump	-11805
ucky	-11806
▁bie	-11807
▁cbi	-11808
▁gta	-11809
▁ibs	-11810
▁iee	-11811
▁iii	-11812
▁irs	-11813
▁isi	-11814
▁iso	-11815
▁isp	-11816
▁jaw	-11817
▁jor	-11818
▁jou	-11819
▁kam	-11820
▁kay	-11821
▁koo	-11822
▁lac	-11823
▁lan	-11824
▁lav	-11825
▁lax	-11826
▁laz	-11827
▁lex	-11828
▁lig	-11829
▁liz	-11830
▁loy	-11831
▁lti	-11832
▁lum	-11833
▁meg	-11834
▁mik	-11835
▁mlb	-11836
▁mri	-11837
▁nah	-11838
▁ngo	-11839
▁nse	-11840
▁nsf	-11841
▁nud	-11842
▁nyu	-11843
▁obl	-11844
▁obn	-11845
▁odi	-11846
▁ohi	-11847
▁oli	-11848
▁onc	-11849
▁orb	-11850
▁ota	-11851
▁otp	-11852
▁owe	-11853
▁pag	-11854
▁pcs	-11855
▁pel	-11856
▁pls	-11857
▁plz	-11858
▁por	-11859
▁ppl	-11860
▁pud	-11861
▁pus	-11862
▁rai	-11863
▁rav	-11864
▁rbi	-11865
▁ree	-11866
▁rhy	-11867
▁rip	-11868
▁rna	-11869
▁ron	-11870
▁shu	-11871
▁sut	-11872
▁suz	-11873
▁thy	-11874
▁tms	-11875
▁tol	-11876
▁ugc	-11877
▁vap	-11878
▁vay	-11879
▁vba	-11880
▁ved	-11881
▁vet	-11882
▁vik	-11883
▁von	-11884
▁vow	-11885
▁wim	-11886
▁wiz	-11887
▁wre	-11888
▁wwi	-11889
▁xam	-11890
▁yam	-11891
▁yon	-11892
▁yug	-11893
achus	-11894
adder	-11895
agery	-11896
aguya	-11897
ained	-11898
aleed	-11899
apes	-11900
chet	-11901
enth	-11902
proc	-11903
▁dee	-11904
▁vii	-11905
▁xii	-11906
amask	-11907
amboo	-11908
amics	-11909
amins	-11910
amous	-11911
ancou	-11912
angel	-11913
anmar	-11914
apped	-11915
apple	-11916
apult	-11917
arbon	-11918
arios	-11919
arius	-11920
ashes	-11921
asive	-11922
aspor	-11923
astra	-11924
atics	-11925
atoes	-11926
balls	-11927
bells	-11928
brevi	-11929
bucks	-11930
chemy	-11931
child	-11932
china	-11933
cised	-11934
civil	-11935
creen	-11936
daugh	-11937
dered	-11938
dians	-11939
dious	-11940
dling	-11941
endra	-11942
erial	-11943
eroon	-11944
esium	-11945
eterm	-11946
euver	-11947
exist	-11948
faces	-11949
ffron	-11950
flake	-11951
ggage	-11952
gians	-11953
going	-11954
habit	-11955
haust	-11956
heard	-11957
heart	-11958
hiana	-11959
▁	-11960
e	-11961
a	-11962
t	-11963
o	-11964
i	-11965
n	-11966
s	-11967
r	-11968
h	-11969
l	-11970
d	-11971
c	-11972
w	-11973
u	-11974
m	-11975
y	-11976
p	-11977
f	-11978
g	-11979
b	-11980
v	-11981
k	-11982
x	-11983
j	-11984
0	-11985
1	-11986
q	-11987
2	-11988
z	-11989
5	-11990
3	-11991
7	-11992
8	-11993
4	-11994
9	-11995
