<pad>	0
<s>	0
</s>	0
<unk>	0
▁t	-0
▁a	-1
▁i	-2
▁w	-3
he	-4
re	-5
at	-6
▁s	-7
in	-8
▁c	-9
▁the	-10
on	-11
▁d	-12
▁wh	-13
er	-14
an	-15
▁m	-16
▁b	-17
ou	-18
or	-19
▁h	-20
es	-21
▁f	-22
▁p	-23
▁in	-24
en	-25
▁o	-26
ing	-27
▁what	-28
▁is	-29
▁to	-30
al	-31
it	-32
▁an	-33
ar	-34
ow	-35
ic	-36
le	-37
om	-38
▁do	-39
▁of	-40
▁g	-41
st	-42
▁y	-43
ed	-44
▁l	-45
▁how	-46
▁e	-47
▁you	-48
▁n	-49
▁and	-50
ve	-51
ion	-52
▁are	-53
et	-54
▁th	-55
▁for	-56
ld	-57
as	-58
▁re	-59
is	-60
ll	-61
▁be	-62
▁can	-63
▁u	-64
ent	-65
ct	-66
▁st	-67
ro	-68
ra	-69
▁why	-70
id	-71
▁it	-72
▁on	-73
ce	-74
ch	-75
ot	-76
ly	-77
▁ha	-78
ould	-79
se	-80
est	-81
oo	-82
ver	-83
ri	-84
ke	-85
ay	-86
am	-87
ome	-88
ir	-89
ith	-90
▁li	-91
op	-92
▁my	-93
▁with	-94
ation	-95
▁or	-96
▁sh	-97
ol	-98
ter	-99
ig	-100
ur	-101
▁that	-102
out	-103
ad	-104
▁we	-105
▁j	-106
ut	-107
im	-108
nt	-109
▁whe	-110
▁if	-111
▁mo	-112
▁does	-113
▁ch	-114
ge	-115
▁have	-116
ill	-117
▁k	-118
▁as	-119
▁de	-120
il	-121
ers	-122
us	-123
fe	-124
pp	-125
um	-126
▁he	-127
ate	-128
▁con	-129
▁pro	-130
▁v	-131
▁me	-132
▁fr	-133
▁some	-134
▁se	-135
ist	-136
ul	-137
▁ma	-138
▁ex	-139
qu	-140
ant	-141
▁get	-142
one	-143
▁r	-144
▁com	-145
di	-146
ich	-147
▁from	-148
th	-149
▁wor	-150
if	-151
▁your	-152
her	-153
▁so	-154
▁le	-155
▁should	-156
▁which	-157
ck	-158
ble	-159
▁at	-160
▁ne	-161
ess	-162
▁when	-163
▁best	-164
▁would	-165
▁un	-166
ity	-167
▁su	-168
end	-169
os	-170
▁ab	-171
ine	-172
▁pe	-173
▁1	-174
ood	-175
▁not	-176
ment	-177
un	-178
art	-179
pe	-180
▁any	-181
res	-182
ive	-183
▁us	-184
and	-185
▁am	-186
▁peop	-187
▁there	-188
ies	-189
el	-190
▁who	-191
▁people	-192
▁indi	-193
ans	-194
ht	-195
▁im	-196
▁will	-197
▁en	-198
are	-199
▁tr	-200
▁like	-201
ci	-202
▁af	-203
ally	-204
la	-205
▁man	-206
ud	-207
ind	-208
ie	-209
▁qu	-210
▁2	-211
ore	-212
▁te	-213
▁about	-214
▁was	-215
▁did	-216
▁comp	-217
ort	-218
▁fa	-219
pt	-220
▁fe	-221
▁they	-222
our	-223
▁go	-224
ust	-225
▁bet	-226
age	-227
▁by	-228
ure	-229
▁ta	-230
▁al	-231
ook	-232
ard	-233
▁good	-234
ia	-235
ain	-236
ink	-237
ip	-238
▁int	-239
▁ad	-240
og	-241
ong	-242
der	-243
ical	-244
ry	-245
ite	-246
ount	-247
▁ac	-248
ear	-249
iv	-250
▁all	-251
▁their	-252
ass	-253
per	-254
▁dif	-255
▁ever	-256
ide	-257
ther	-258
ren	-259
▁mar	-260
▁one	-261
▁has	-262
▁cl	-263
ag	-264
▁ph	-265
▁india	-266
all	-267
▁bec	-268
ish	-269
▁ar	-270
▁app	-271
ence	-272
▁kn	-273
▁but	-274
od	-275
▁after	-276
ang	-277
▁lo	-278
▁jo	-279
▁where	-280
ions	-281
ap	-282
em	-283
▁pl	-284
▁work	-285
▁think	-286
we	-287
red	-288
▁year	-289
ice	-290
ast	-291
ame	-292
▁stud	-293
▁up	-294
▁diffe	-295
▁eng	-296
vel	-297
ak	-298
▁other	-299
ics	-300
▁sp	-301
▁know	-302
ue	-303
▁ra	-304
▁way	-305
▁most	-306
▁this	-307
ont	-308
▁pre	-309
ab	-310
▁tim	-311
ght	-312
oun	-313
▁more	-314
arn	-315
ile	-316
ous	-317
ary	-318
▁out	-319
▁20	-320
▁sc	-321
▁tra	-322
ance	-323
▁make	-324
ack	-325
iz	-326
ult	-327
si	-328
▁po	-329
act	-330
ween	-331
▁many	-332
▁between	-333
▁use	-334
ep	-335
ated	-336
pl	-337
▁co	-338
ens	-339
▁want	-340
ect	-341
▁mu	-342
ving	-343
▁pers	-344
▁rel	-345
▁them	-346
ight	-347
▁imp	-348
du	-349
▁than	-350
▁bu	-351
ations	-352
ress	-353
▁count	-354
▁happ	-355
ber	-356
▁col	-357
▁cont	-358
au	-359
gh	-360
▁life	-361
▁ro	-362
ound	-363
riend	-364
▁time	-365
▁someone	-366
▁no	-367
▁act	-368
▁dis	-369
ys	-370
ign	-371
▁person	-372
vers	-373
▁cons	-374
▁start	-375
ian	-376
rent	-377
▁much	-378
ath	-379
▁ev	-380
▁res	-381
▁per	-382
bs	-383
rit	-384
▁pos	-385
able	-386
▁feel	-387
irl	-388
ting	-389
▁inter	-390
▁acc	-391
ree	-392
orm	-393
ory	-394
ces	-395
▁ag	-396
lect	-397
▁bo	-398
ach	-399
▁world	-400
reat	-401
ub	-402
ire	-403
king	-404
ram	-405
ays	-406
ump	-407
▁over	-408
ac	-409
▁dont	-410
▁were	-411
▁being	-412
oc	-413
▁learn	-414
▁3	-415
ors	-416
eric	-417
▁spe	-418
ild	-419
▁find	-420
▁take	-421
ool	-422
▁girl	-423
▁comm	-424
ph	-425
ents	-426
▁em	-427
▁uni	-428
▁che	-429
▁201	-430
▁its	-431
▁just	-432
ks	-433
fect	-434
▁rec	-435
▁thing	-436
ru	-437
▁his	-438
▁off	-439
▁engine	-440
▁new	-441
▁mean	-442
▁could	-443
▁wom	-444
▁americ	-445
▁into	-446
als	-447
ase	-448
▁sy	-449
▁become	-450
▁part	-451
▁la	-452
▁exam	-453
▁sa	-454
erm	-455
▁bl	-456
00	-457
▁mus	-458
ft	-459
ough	-460
▁quor	-461
▁under	-462
▁sch	-463
▁book	-464
hip	-465
sible	-466
▁without	-467
▁pol	-468
▁need	-469
▁whats	-470
de	-471
led	-472
▁des	-473
ering	-474
ism	-475
▁every	-476
▁gr	-477
cess	-478
lf	-479
▁pr	-480
int	-481
▁ri	-482
▁inv	-483
own	-484
▁ser	-485
olog	-486
ick	-487
▁quora	-488
cial	-489
▁inc	-490
▁sm	-491
▁better	-492
▁chin	-493
av	-494
▁med	-495
▁differen	-496
▁5	-497
ause	-498
▁her	-499
ates	-500
▁job	-501
▁trump	-502
▁fl	-503
ject	-504
iss	-505
▁gu	-506
▁car	-507
▁inst	-508
con	-509
ating	-510
▁friend	-511
▁possible	-512
wn	-513
▁att	-514
▁school	-515
▁long	-516
ict	-517
▁sex	-518
ced	-519
▁back	-520
▁fir	-521
eth	-522
▁been	-523
ial	-524
▁br	-525
▁ke	-526
▁gen	-527
▁years	-528
▁indian	-529
▁happen	-530
▁hel	-531
ail	-532
▁pla	-533
▁different	-534
ific	-535
ual	-536
▁bus	-537
iness	-538
ities	-539
ord	-540
▁univers	-541
lic	-542
▁chan	-543
▁only	-544
ff	-545
ful	-546
oney	-547
▁compan	-548
les	-549
ose	-550
ons	-551
ater	-552
▁old	-553
▁elect	-554
up	-555
▁help	-556
ank	-557
▁inf	-558
ise	-559
ily	-560
▁difference	-561
▁rep	-562
▁cal	-563
▁gra	-564
▁colle	-565
iew	-566
▁class	-567
igh	-568
▁tw	-569
▁first	-570
te	-571
ese	-572
▁she	-573
▁inte	-574
▁trans	-575
ying	-576
▁had	-577
uring	-578
▁money	-579
▁ty	-580
line	-581
▁real	-582
▁je	-583
▁bel	-584
▁mon	-585
▁own	-586
▁4	-587
ract	-588
ries	-589
ular	-590
▁see	-591
▁reg	-592
velop	-593
its	-594
▁say	-595
▁prog	-596
▁quest	-597
▁women	-598
▁business	-599
▁sk	-600
▁hum	-601
▁look	-602
▁wr	-603
▁sci	-604
▁pres	-605
▁used	-606
▁still	-607
▁stop	-608
▁really	-609
lim	-610
ric	-611
urn	-612
▁sol	-613
▁develop	-614
ments	-615
▁even	-616
▁adv	-617
▁exp	-618
▁while	-619
▁ind	-620
▁char	-621
▁bi	-622
▁him	-623
▁right	-624
▁war	-625
▁exper	-626
▁engineering	-627
▁ob	-628
ade	-629
▁now	-630
cy	-631
ition	-632
▁country	-633
lo	-634
▁our	-635
▁fo	-636
fore	-637
self	-638
▁ear	-639
▁love	-640
ket	-641
kes	-642
ists	-643
▁fun	-644
▁rem	-645
ction	-646
▁intern	-647
▁program	-648
ational	-649
▁during	-650
cept	-651
▁ver	-652
▁care	-653
ody	-654
▁thr	-655
ative	-656
▁bas	-657
ology	-658
ts	-659
ower	-660
pect	-661
▁buy	-662
▁child	-663
ians	-664
▁produ	-665
ms	-666
▁ca	-667
▁play	-668
▁same	-669
▁again	-670
▁before	-671
uc	-672
▁university	-673
ious	-674
▁cour	-675
hes	-676
▁mov	-677
▁because	-678
co	-679
lish	-680
▁bre	-681
▁give	-682
▁tech	-683
▁cor	-684
▁fam	-685
stem	-686
▁down	-687
▁online	-688
ale	-689
▁bla	-690
▁cant	-691
▁using	-692
▁things	-693
▁getting	-694
▁top	-695
▁supp	-696
▁experi	-697
▁import	-698
ai	-699
ages	-700
▁tell	-701
▁college	-702
▁mat	-703
▁then	-704
▁bad	-705
▁cur	-706
oy	-707
rest	-708
other	-709
ually	-710
▁anyone	-711
▁ho	-712
▁face	-713
ata	-714
fer	-715
rim	-716
▁day	-717
▁men	-718
▁market	-719
ds	-720
▁cre	-721
▁system	-722
▁eu	-723
▁sim	-724
▁str	-725
▁state	-726
▁ins	-727
▁countries	-728
sc	-729
ash	-730
▁hy	-731
▁ed	-732
▁sur	-733
ved	-734
▁free	-735
▁op	-736
▁ent	-737
▁num	-738
▁pay	-739
▁vis	-740
▁black	-741
ix	-742
ert	-743
rist	-744
▁law	-745
▁muslim	-746
orn	-747
▁ef	-748
ited	-749
▁min	-750
ution	-751
▁sub	-752
▁form	-753
▁made	-754
▁place	-755
gy	-756
alth	-757
▁big	-758
▁val	-759
ident	-760
▁high	-761
ically	-762
ards	-763
▁dep	-764
▁pur	-765
▁dec	-766
▁som	-767
▁two	-768
▁belie	-769
▁effect	-770
sw	-771
hed	-772
▁sal	-773
▁lang	-774
▁doing	-775
▁study	-776
ron	-777
▁aut	-778
▁fin	-779
gn	-780
▁phys	-781
▁read	-782
▁account	-783
▁student	-784
ral	-785
▁keep	-786
xt	-787
▁ass	-788
▁leg	-789
ple	-790
▁ben	-791
▁having	-792
▁students	-793
ock	-794
▁gener	-795
▁langu	-796
▁techn	-797
▁change	-798
▁relations	-799
▁x	-800
ves	-801
▁12	-802
az	-803
ins	-804
▁10	-805
▁av	-806
▁live	-807
▁pop	-808
▁sing	-809
▁great	-810
▁answ	-811
▁science	-812
li	-813
ger	-814
oth	-815
▁bra	-816
▁name	-817
▁show	-818
▁writ	-819
▁english	-820
get	-821
▁ce	-822
ants	-823
arent	-824
▁home	-825
▁prep	-826
▁prof	-827
ace	-828
day	-829
uter	-830
▁month	-831
▁sw	-832
▁euro	-833
▁pass	-834
▁plan	-835
gle	-836
▁tri	-837
arch	-838
▁add	-839
▁ide	-840
▁tal	-841
▁fact	-842
▁relationship	-843
▁z	-844
book	-845
▁air	-846
▁hist	-847
▁such	-848
▁very	-849
be	-850
ull	-851
▁food	-852
friend	-853
▁pa	-854
ather	-855
▁through	-856
ones	-857
▁serv	-858
▁important	-859
▁def	-860
▁rus	-861
▁sign	-862
▁invest	-863
ef	-864
ices	-865
▁ask	-866
▁requ	-867
▁computer	-868
ne	-869
atch	-870
ings	-871
ired	-872
ures	-873
ware	-874
▁eas	-875
▁end	-876
▁maj	-877
▁test	-878
▁true	-879
▁human	-880
▁europe	-881
man	-882
▁sec	-883
▁come	-884
▁gover	-885
llow	-886
ways	-887
▁non	-888
▁hand	-889
▁post	-890
▁china	-891
▁parent	-892
ples	-893
▁det	-894
▁company	-895
ize	-896
▁ps	-897
chan	-898
form	-899
▁2017	-900
▁govern	-901
▁american	-902
▁questions	-903
ps	-904
ars	-905
iet	-906
ason	-907
ream	-908
conom	-909
▁polit	-910
▁white	-911
▁social	-912
▁experience	-913
▁cle	-914
▁2018	-915
▁major	-916
▁design	-917
thing	-918
▁less	-919
▁ways	-920
▁art	-921
▁econom	-922
▁proble	-923
ute	-924
gest	-925
▁opt	-926
▁commun	-927
▁learning	-928
▁cr	-929
▁dem	-930
ublic	-931
▁books	-932
▁going	-933
▁never	-934
so	-935
▁equ	-936
▁too	-937
hi	-938
▁anim	-939
▁christ	-940
▁chinese	-941
rol	-942
▁data	-943
▁hard	-944
▁kind	-945
ething	-946
▁point	-947
▁water	-948
▁health	-949
▁states	-950
ond	-951
way	-952
ince	-953
ites	-954
ining	-955
▁relig	-956
▁giv	-957
▁dist	-958
▁friends	-959
▁parents	-960
▁language	-961
▁something	-962
ames	-963
ouse	-964
ality	-965
▁term	-966
▁current	-967
▁process	-968
ave	-969
▁fem	-970
▁mem	-971
▁par	-972
▁pri	-973
▁ret	-974
▁always	-975
ba	-976
▁el	-977
view	-978
▁lit	-979
▁soci	-980
▁webs	-981
▁against	-982
ten	-983
ming	-984
ning	-985
outh	-986
ought	-987
▁germ	-988
▁power	-989
▁government	-990
ty	-991
▁boy	-992
▁ext	-993
▁let	-994
▁met	-995
▁win	-996
ility	-997
▁prov	-998
▁family	-999
gan	-1000
▁beh	-1001
▁fav	-1002
▁mil	-1003
ional	-1004
istan	-1005
▁kill	-1006
▁history	-1007
▁7	-1008
▁ve	-1009
ines	-1010
▁dog	-1011
▁cent	-1012
▁impro	-1013
▁accept	-1014
▁affect	-1015
▁interest	-1016
mit	-1017
ster	-1018
▁age	-1019
▁goo	-1020
▁const	-1021
ats	-1022
ges	-1023
ted	-1024
land	-1025
▁ter	-1026
stand	-1027
▁canad	-1028
▁fut	-1029
▁body	-1030
▁doesnt	-1031
▁number	-1032
▁product	-1033
▁eat	-1034
▁opp	-1035
▁fore	-1036
▁view	-1037
▁phone	-1038
▁career	-1039
▁follow	-1040
na	-1041
▁9	-1042
ature	-1043
▁pain	-1044
▁soft	-1045
▁comple	-1046
▁travel	-1047
▁move	-1048
▁marri	-1049
▁president	-1050
ness	-1051
▁har	-1052
▁type	-1053
▁google	-1054
▁actually	-1055
▁examples	-1056
ied	-1057
tle	-1058
▁dr	-1059
▁ban	-1060
▁cam	-1061
▁got	-1062
▁caus	-1063
▁girls	-1064
▁write	-1065
▁america	-1066
▁believe	-1067
umb	-1068
vent	-1069
▁psy	-1070
▁suc	-1071
▁cost	-1072
▁grou	-1073
▁list	-1074
▁norm	-1075
▁vide	-1076
▁allow	-1077
▁makes	-1078
▁super	-1079
▁wrong	-1080
▁future	-1081
▁8	-1082
cri	-1083
ared	-1084
ploy	-1085
▁bro	-1086
▁imm	-1087
▁mass	-1088
▁rest	-1089
▁build	-1090
▁earth	-1091
▁treat	-1092
▁course	-1093
ss	-1094
com	-1095
ead	-1096
▁mot	-1097
▁pat	-1098
▁put	-1099
▁set	-1100
▁each	-1101
▁manage	-1102
cc	-1103
ern	-1104
▁19	-1105
▁del	-1106
▁jap	-1107
▁lead	-1108
▁exist	-1109
▁mechan	-1110
▁companies	-1111
pes	-1112
ield	-1113
ories	-1114
idered	-1115
▁benef	-1116
▁incre	-1117
▁working	-1118
▁facebook	-1119
▁considered	-1120
ib	-1121
▁100	-1122
▁net	-1123
▁run	-1124
▁cult	-1125
▁last	-1126
▁german	-1127
▁uk	-1128
▁arm	-1129
▁dra	-1130
▁dri	-1131
▁fil	-1132
▁pak	-1133
▁brit	-1134
▁main	-1135
▁turn	-1136
▁around	-1137
▁charact	-1138
▁muslims	-1139
▁understand	-1140
wor	-1141
▁nor	-1142
▁sle	-1143
▁sell	-1144
▁light	-1145
▁movie	-1146
▁instead	-1147
ope	-1148
ues	-1149
cent	-1150
read	-1151
▁ener	-1152
▁full	-1153
▁left	-1154
▁ment	-1155
ission	-1156
▁japan	-1157
▁united	-1158
ner	-1159
ator	-1160
ural	-1161
▁civ	-1162
▁prot	-1163
▁small	-1164
▁another	-1165
▁control	-1166
▁support	-1167
mat	-1168
▁et	-1169
ctor	-1170
raph	-1171
▁cod	-1172
▁cra	-1173
▁deg	-1174
▁bang	-1175
▁cert	-1176
▁choo	-1177
▁educ	-1178
▁open	-1179
verage	-1180
▁apply	-1181
▁chang	-1182
▁found	-1183
lam	-1184
ret	-1185
ital	-1186
▁wee	-1187
▁able	-1188
▁call	-1189
▁deal	-1190
▁west	-1191
▁break	-1192
▁myself	-1193
ider	-1194
▁phot	-1195
▁civil	-1196
▁favor	-1197
▁psych	-1198
▁south	-1199
▁living	-1200
ips	-1201
▁god	-1202
▁gun	-1203
▁hot	-1204
▁also	-1205
▁house	-1206
▁marks	-1207
▁stand	-1208
▁software	-1209
ety	-1210
ror	-1211
ude	-1212
onal	-1213
▁kid	-1214
▁energy	-1215
▁15	-1216
▁ok	-1217
ills	-1218
▁ant	-1219
▁lot	-1220
▁low	-1221
▁conf	-1222
▁dire	-1223
▁media	-1224
▁since	-1225
▁pakistan	-1226
rop	-1227
udi	-1228
ters	-1229
▁bat	-1230
▁guy	-1231
aring	-1232
▁aust	-1233
▁score	-1234
▁short	-1235
▁jee	-1236
▁pen	-1237
▁both	-1238
▁done	-1239
▁meth	-1240
▁rese	-1241
▁liber	-1242
▁worth	-1243
▁canada	-1244
▁normal	-1245
els	-1246
tern	-1247
▁dev	-1248
▁usa	-1249
▁song	-1250
ration	-1251
▁level	-1252
▁order	-1253
▁woman	-1254
▁making	-1255
▁happens	-1256
▁success	-1257
bo	-1258
ior	-1259
ove	-1260
▁id	-1261
▁ir	-1262
hing	-1263
▁cap	-1264
▁hate	-1265
▁well	-1266
▁known	-1267
▁average	-1268
▁project	-1269
▁children	-1270
cle	-1271
cul	-1272
ier	-1273
uck	-1274
ding	-1275
▁iss	-1276
itive	-1277
▁chem	-1278
▁join	-1279
ograph	-1280
▁answer	-1281
▁called	-1282
▁indust	-1283
▁reason	-1284
erv	-1285
gal	-1286
▁ref	-1287
verse	-1288
▁anal	-1289
▁grow	-1290
▁hind	-1291
▁self	-1292
▁employ	-1293
▁physics	-1294
▁question	-1295
br	-1296
ws	-1297
ium	-1298
▁adm	-1299
▁cat	-1300
▁conn	-1301
▁spec	-1302
▁music	-1303
▁sleep	-1304
▁improve	-1305
io	-1306
ma	-1307
gin	-1308
▁ge	-1309
▁wa	-1310
cond	-1311
ives	-1312
▁lar	-1313
▁mom	-1314
▁ste	-1315
▁bank	-1316
▁diff	-1317
▁mach	-1318
▁mind	-1319
▁next	-1320
▁cause	-1321
▁organ	-1322
▁those	-1323
▁applic	-1324
▁choose	-1325
▁expect	-1326
▁writing	-1327
ark	-1328
▁ap	-1329
▁nar	-1330
▁days	-1331
▁earn	-1332
▁jobs	-1333
▁word	-1334
ression	-1335
▁common	-1336
▁austral	-1337
▁tv	-1338
ized	-1339
rect	-1340
▁aff	-1341
▁tax	-1342
▁crim	-1343
▁game	-1344
▁kore	-1345
▁moder	-1346
▁weight	-1347
▁prepare	-1348
omm	-1349
▁sit	-1350
▁card	-1351
▁north	-1352
▁offic	-1353
▁value	-1354
▁create	-1355
▁thought	-1356
▁happened	-1357
▁research	-1358
▁americans	-1359
▁management	-1360
ho	-1361
▁18	-1362
ffic	-1363
load	-1364
phone	-1365
▁priv	-1366
▁based	-1367
▁field	-1368
▁group	-1369
▁salary	-1370
▁connect	-1371
▁popular	-1372
pa	-1373
ets	-1374
ense	-1375
▁iit	-1376
▁resp	-1377
▁safe	-1378
▁public	-1379
▁taking	-1380
▁favorite	-1381
▁character	-1382
lu	-1383
ler	-1384
ote	-1385
▁sn	-1386
ilar	-1387
▁pun	-1388
wards	-1389
▁mast	-1390
▁step	-1391
▁didnt	-1392
▁dream	-1393
▁pract	-1394
▁video	-1395
▁visit	-1396
▁causes	-1397
▁second	-1398
▁profess	-1399
▁anything	-1400
cl	-1401
ym	-1402
ube	-1403
bers	-1404
inal	-1405
less	-1406
osed	-1407
▁bit	-1408
▁cit	-1409
▁cut	-1410
▁log	-1411
▁head	-1412
▁orig	-1413
▁death	-1414
▁milit	-1415
▁react	-1416
▁times	-1417
▁watch	-1418
▁partic	-1419
▁similar	-1420
▁website	-1421
▁11	-1422
vert	-1423
▁mal	-1424
▁mic	-1425
▁mod	-1426
▁red	-1427
onald	-1428
▁mess	-1429
▁islam	-1430
▁speak	-1431
▁general	-1432
anc	-1433
ient	-1434
▁bir	-1435
▁fre	-1436
▁amaz	-1437
▁city	-1438
▁land	-1439
▁rank	-1440
▁seem	-1441
▁tips	-1442
▁democ	-1443
▁today	-1444
▁degree	-1445
▁method	-1446
▁problem	-1447
▁development	-1448
air	-1449
ify	-1450
▁sl	-1451
ency	-1452
port	-1453
▁far	-1454
▁hair	-1455
▁stat	-1456
▁brain	-1457
▁fight	-1458
▁consider	-1459
ama	-1460
▁er	-1461
ides	-1462
▁etc	-1463
▁isnt	-1464
▁past	-1465
▁stay	-1466
aching	-1467
▁avail	-1468
▁given	-1469
▁others	-1470
▁medical	-1471
▁internet	-1472
▁interview	-1473
oid	-1474
▁ru	-1475
aths	-1476
▁loc	-1477
▁tur	-1478
alore	-1479
▁away	-1480
▁idea	-1481
▁star	-1482
▁talk	-1483
▁afric	-1484
▁space	-1485
▁donald	-1486
▁police	-1487
▁proper	-1488
▁special	-1489
▁religion	-1490
▁education	-1491
▁marketing	-1492
mo	-1493
bile	-1494
▁ara	-1495
▁cir	-1496
▁est	-1497
▁sho	-1498
▁mill	-1499
▁yout	-1500
▁gradu	-1501
▁movies	-1502
▁attract	-1503
▁society	-1504
▁mechanical	-1505
bit	-1506
ven	-1507
▁ey	-1508
reen	-1509
▁cla	-1510
▁vir	-1511
ister	-1512
▁said	-1513
▁influ	-1514
▁night	-1515
▁meaning	-1516
▁engineer	-1517
▁increase	-1518
▁bangalore	-1519
▁christian	-1520
▁effective	-1521
▁technology	-1522
gr	-1523
gs	-1524
▁es	-1525
anch	-1526
roid	-1527
▁mba	-1528
▁mer	-1529
▁web	-1530
cture	-1531
▁rate	-1532
▁week	-1533
ination	-1534
▁looking	-1535
▁service	-1536
▁startup	-1537
▁military	-1538
▁training	-1539
nn	-1540
har	-1541
ows	-1542
▁ur	-1543
▁cry	-1544
▁hur	-1545
▁pot	-1546
ently	-1547
icult	-1548
▁fast	-1549
▁hour	-1550
▁autom	-1551
▁citiz	-1552
▁delhi	-1553
▁often	-1554
▁story	-1555
▁these	-1556
▁inform	-1557
▁months	-1558
▁prefer	-1559
▁foreign	-1560
▁required	-1561
▁boyfriend	-1562
▁difficult	-1563
bi	-1564
me	-1565
ane	-1566
cer	-1567
ush	-1568
ball	-1569
lain	-1570
▁bar	-1571
▁lose	-1572
▁russi	-1573
▁smart	-1574
antages	-1575
▁recomm	-1576
▁indians	-1577
ik	-1578
gen	-1579
gra	-1580
ime	-1581
iod	-1582
ird	-1583
mer	-1584
▁da	-1585
ible	-1586
llig	-1587
pose	-1588
▁due	-1589
▁neg	-1590
▁sym	-1591
▁var	-1592
▁cell	-1593
▁link	-1594
▁oper	-1595
▁send	-1596
▁skin	-1597
▁leave	-1598
▁electr	-1599
▁modern	-1600
▁terror	-1601
▁british	-1602
▁machine	-1603
▁recommend	-1604
ah	-1605
ams	-1606
ogn	-1607
oph	-1608
sel	-1609
ses	-1610
sia	-1611
▁ww	-1612
ange	-1613
body	-1614
ison	-1615
▁hig	-1616
▁may	-1617
▁yet	-1618
▁date	-1619
▁disc	-1620
istics	-1621
ulation	-1622
▁strong	-1623
▁android	-1624
▁intellig	-1625
▁programming	-1626
nd	-1627
che	-1628
ken	-1629
rib	-1630
abad	-1631
atic	-1632
▁rom	-1633
▁sug	-1634
▁tem	-1635
ished	-1636
▁cust	-1637
▁mult	-1638
▁news	-1639
▁games	-1640
▁press	-1641
▁sound	-1642
▁amount	-1643
▁female	-1644
▁instit	-1645
▁object	-1646
▁single	-1647
▁skills	-1648
▁percent	-1649
ims	-1650
ots	-1651
val	-1652
▁vi	-1653
oice	-1654
ward	-1655
▁mid	-1656
▁mor	-1657
▁tou	-1658
▁mathe	-1659
▁behind	-1660
▁period	-1661
▁result	-1662
▁present	-1663
▁subject	-1664
▁services	-1665
▁available	-1666
app	-1667
lob	-1668
nam	-1669
que	-1670
ume	-1671
▁die	-1672
▁div	-1673
▁hit	-1674
▁los	-1675
▁rid	-1676
▁tre	-1677
▁code	-1678
▁fall	-1679
▁opin	-1680
▁pict	-1681
▁surv	-1682
▁wear	-1683
▁blood	-1684
▁speed	-1685
▁studi	-1686
▁types	-1687
ography	-1688
▁direct	-1689
▁enough	-1690
▁mother	-1691
▁russia	-1692
▁prevent	-1693
▁mathemat	-1694
▁specific	-1695
▁international	-1696
lly	-1697
▁di	-1698
ptop	-1699
ross	-1700
▁ive	-1701
▁wal	-1702
ledge	-1703
▁gain	-1704
▁rich	-1705
▁sent	-1706
▁stru	-1707
▁paper	-1708
ization	-1709
▁laptop	-1710
▁germany	-1711
▁protect	-1712
▁youtube	-1713
▁successful	-1714
▁gl	-1715
▁il	-1716
▁bab	-1717
▁dom	-1718
▁eth	-1719
order	-1720
rench	-1721
▁case	-1722
▁easy	-1723
▁lost	-1724
▁youn	-1725
▁force	-1726
▁legal	-1727
▁party	-1728
▁stock	-1729
▁contin	-1730
▁mobile	-1731
▁private	-1732
▁electron	-1733
▁everyone	-1734
▁studying	-1735
▁political	-1736
ton	-1737
▁50	-1738
▁cy	-1739
ased	-1740
come	-1741
▁fat	-1742
▁fix	-1743
lling	-1744
ready	-1745
▁bill	-1746
▁creat	-1747
▁email	-1748
▁already	-1749
▁biggest	-1750
▁correct	-1751
▁related	-1752
cum	-1753
por	-1754
unt	-1755
use	-1756
▁gay	-1757
▁son	-1758
anger	-1759
ators	-1760
istic	-1761
▁hold	-1762
▁miss	-1763
▁prom	-1764
▁drink	-1765
▁liter	-1766
▁marry	-1767
▁worst	-1768
ication	-1769
▁advice	-1770
▁though	-1771
▁answers	-1772
▁culture	-1773
▁japanese	-1774
rap	-1775
band	-1776
ling	-1777
ship	-1778
▁ach	-1779
▁ill	-1780
▁nat	-1781
enced	-1782
▁cond	-1783
▁else	-1784
▁foot	-1785
▁meet	-1786
▁activ	-1787
▁bring	-1788
▁clean	-1789
▁happy	-1790
▁immig	-1791
▁custom	-1792
▁descri	-1793
▁french	-1794
▁rather	-1795
▁remove	-1796
▁scient	-1797
▁purpose	-1798
▁benefits	-1799
▁download	-1800
▁industry	-1801
▁universe	-1802
▁australia	-1803
aut	-1804
fact	-1805
iate	-1806
math	-1807
rael	-1808
ucle	-1809
▁bal	-1810
▁env	-1811
▁occ	-1812
▁rac	-1813
ender	-1814
ision	-1815
ption	-1816
▁guys	-1817
▁modi	-1818
▁side	-1819
▁wind	-1820
▁appro	-1821
▁block	-1822
▁amazon	-1823
▁chance	-1824
▁humans	-1825
▁necess	-1826
▁animals	-1827
▁explain	-1828
▁perform	-1829
▁marriage	-1830
▁personal	-1831
▁problems	-1832
▁admission	-1833
xy	-1834
eng	-1835
ift	-1836
ury	-1837
▁30	-1838
imum	-1839
orts	-1840
tech	-1841
▁ign	-1842
▁area	-1843
▁ille	-1844
▁line	-1845
▁phil	-1846
▁rece	-1847
▁role	-1848
ources	-1849
▁polic	-1850
▁democr	-1851
▁israel	-1852
▁select	-1853
▁allowed	-1854
▁complete	-1855
▁national	-1856
▁products	-1857
▁solution	-1858
dle	-1859
ipp	-1860
ured	-1861
▁pet	-1862
▁vol	-1863
ences	-1864
illed	-1865
▁cast	-1866
▁fire	-1867
▁jews	-1868
▁room	-1869
selves	-1870
▁micro	-1871
▁nucle	-1872
▁store	-1873
▁terms	-1874
▁views	-1875
▁attack	-1876
▁series	-1877
▁knowledge	-1878
▁girlfriend	-1879
han	-1880
yle	-1881
ciss	-1882
here	-1883
ified	-1884
urity	-1885
▁glob	-1886
ensive	-1887
▁begin	-1888
▁moving	-1889
▁return	-1890
▁contact	-1891
▁example	-1892
▁quality	-1893
▁towards	-1894
▁function	-1895
20	-1896
den	-1897
let	-1898
ung	-1899
▁bh	-1900
▁eg	-1901
ateg	-1902
work	-1903
▁200	-1904
▁cop	-1905
acher	-1906
ortun	-1907
umbai	-1908
▁athe	-1909
▁dest	-1910
▁incl	-1911
▁says	-1912
▁site	-1913
▁team	-1914
▁text	-1915
▁daily	-1916
▁ident	-1917
▁mater	-1918
▁price	-1919
▁appear	-1920
▁iphone	-1921
▁secret	-1922
▁economy	-1923
▁narciss	-1924
▁everything	-1925
ug	-1926
000	-1927
ala	-1928
row	-1929
▁pu	-1930
augh	-1931
cing	-1932
ging	-1933
▁dig	-1934
▁jav	-1935
▁sum	-1936
▁try	-1937
ouble	-1938
▁arab	-1939
▁host	-1940
▁purs	-1941
▁radi	-1942
▁seen	-1943
▁vers	-1944
ctions	-1945
▁solve	-1946
▁calcul	-1947
▁likely	-1948
▁mumbai	-1949
▁places	-1950
▁effects	-1951
▁married	-1952
ification	-1953
▁necessary	-1954
▁themselves	-1955
▁information	-1956
ee	-1957
zy	-1958
osp	-1959
▁13	-1960
▁ms	-1961
lace	-1962
ping	-1963
▁enj	-1964
▁jud	-1965
▁lat	-1966
▁mag	-1967
▁sat	-1968
▁sla	-1969
▁tam	-1970
▁fear	-1971
▁outs	-1972
▁prim	-1973
▁redu	-1974
▁rele	-1975
idence	-1976
▁avoid	-1977
▁least	-1978
▁commit	-1979
▁determ	-1980
▁invent	-1981
▁within	-1982
▁conserv	-1983
▁teacher	-1984
▁opportun	-1985
▁republic	-1986
▁community	-1987
esh	-1988
ley	-1989
▁vs	-1990
ager	-1991
ches	-1992
coin	-1993
ined	-1994
▁cse	-1995
▁ele	-1996
▁hom	-1997
▁nit	-1998
▁ris	-1999
▁army	-2000
▁male	-2001
▁shop	-2002
▁achie	-2003
▁brand	-2004
▁obama	-2005
▁share	-2006
▁eating	-2007
▁impact	-2008
▁chances	-2009
▁colleges	-2010
▁liberals	-2011
of	-2012
ged	-2013
oud	-2014
ched	-2015
▁box	-2016
▁hus	-2017
▁obs	-2018
apore	-2019
▁blog	-2020
▁crit	-2021
▁doll	-2022
▁viol	-2023
▁visa	-2024
iction	-2025
▁becom	-2026
▁finan	-2027
▁limit	-2028
▁wants	-2029
ability	-2030
olution	-2031
▁require	-2032
▁started	-2033
▁coaching	-2034
▁pressure	-2035
med	-2036
indi	-2037
itch	-2038
▁abs	-2039
▁ago	-2040
▁bud	-2041
▁dam	-2042
▁hal	-2043
▁hyp	-2044
▁mur	-2045
▁phd	-2046
▁sun	-2047
▁tot	-2048
▁vit	-2049
icket	-2050
istry	-2051
▁cele	-2052
▁cook	-2053
▁gate	-2054
▁insp	-2055
▁ital	-2056
▁manu	-2057
▁prop	-2058
▁stra	-2059
▁teen	-2060
cially	-2061
▁along	-2062
▁asked	-2063
▁birth	-2064
▁cheap	-2065
▁heart	-2066
▁three	-2067
▁youve	-2068
▁global	-2069
▁trying	-2070
▁brother	-2071
▁nothing	-2072
▁negative	-2073
▁singapore	-2074
▁depression	-2075
no	-2076
ake	-2077
cks	-2078
uss	-2079
over	-2080
tery	-2081
wood	-2082
▁dru	-2083
▁foc	-2084
▁key	-2085
▁yes	-2086
epend	-2087
▁acad	-2088
▁arch	-2089
▁draw	-2090
▁fail	-2091
▁here	-2092
▁kids	-2093
▁situ	-2094
▁board	-2095
▁clear	-2096
▁event	-2097
▁exact	-2098
▁pregn	-2099
▁quant	-2100
▁scope	-2101
▁young	-2102
▁youre	-2103
▁famous	-2104
▁recogn	-2105
▁regard	-2106
▁rights	-2107
▁topics	-2108
▁useful	-2109
▁husband	-2110
▁officer	-2111
▁opinion	-2112
▁russian	-2113
▁systems	-2114
▁electric	-2115
▁manufact	-2116
▁universities	-2117
50	-2118
ha	-2119
ife	-2120
used	-2121
▁emp	-2122
▁hol	-2123
▁lab	-2124
▁pub	-2125
▁rob	-2126
iable	-2127
oring	-2128
▁cred	-2129
▁laws	-2130
▁must	-2131
▁near	-2132
▁pack	-2133
▁qual	-2134
onment	-2135
ording	-2136
▁alone	-2137
▁early	-2138
▁enjoy	-2139
▁hours	-2140
▁hyder	-2141
▁table	-2142
▁academ	-2143
▁issues	-2144
▁little	-2145
▁mental	-2146
▁respon	-2147
▁provide	-2148
▁european	-2149
▁independ	-2150
▁yourself	-2151
▁application	-2152
ze	-2153
hel	-2154
▁14	-2155
ases	-2156
▁ang	-2157
▁dia	-2158
▁fla	-2159
asons	-2160
feren	-2161
▁cann	-2162
▁comb	-2163
▁tool	-2164
▁wars	-2165
▁basic	-2166
▁envir	-2167
▁korea	-2168
▁medic	-2169
▁motiv	-2170
▁tamil	-2171
▁africa	-2172
▁branch	-2173
▁matter	-2174
▁option	-2175
▁feeling	-2176
▁healthy	-2177
▁masters	-2178
▁nuclear	-2179
▁schools	-2180
▁western	-2181
▁thoughts	-2182
▁websites	-2183
▁institute	-2184
▁environment	-2185
ya	-2186
▁q	-2187
cra	-2188
hen	-2189
omb	-2190
oms	-2191
vid	-2192
ered	-2193
▁cou	-2194
▁oil	-2195
▁won	-2196
imate	-2197
▁apps	-2198
▁cars	-2199
▁east	-2200
▁ones	-2201
▁paid	-2202
▁race	-2203
atives	-2204
▁invol	-2205
▁large	-2206
▁access	-2207
▁higher	-2208
▁concept	-2209
▁contain	-2210
▁numbers	-2211
▁suggest	-2212
▁thinking	-2213
▁transfer	-2214
▁hyderabad	-2215
▁religious	-2216
▁advantages	-2217
▁electrical	-2218
▁population	-2219
ca	-2220
cu	-2221
fl	-2222
fs	-2223
tt	-2224
▁0	-2225
ilt	-2226
ney	-2227
sib	-2228
urb	-2229
▁pc	-2230
etic	-2231
iest	-2232
iled	-2233
unch	-2234
▁hyd	-2235
▁mix	-2236
▁sil	-2237
▁dark	-2238
▁dead	-2239
▁dele	-2240
▁gold	-2241
▁hurt	-2242
▁neet	-2243
▁okay	-2244
▁port	-2245
▁save	-2246
▁uses	-2247
itions	-2248
▁check	-2249
▁color	-2250
▁comes	-2251
▁facts	-2252
▁ideas	-2253
▁lives	-2254
▁model	-2255
▁spend	-2256
▁train	-2257
▁commer	-2258
▁danger	-2259
▁father	-2260
▁changed	-2261
▁courses	-2262
▁illegal	-2263
▁outside	-2264
▁chemical	-2265
▁compared	-2266
▁security	-2267
▁interesting	-2268
▁mathematics	-2269
bt	-2270
ny	-2271
ana	-2272
hol	-2273
off	-2274
oor	-2275
▁cs	-2276
▁iq	-2277
ners	-2278
nnai	-2279
▁ast	-2280
▁few	-2281
▁gas	-2282
▁hes	-2283
▁hor	-2284
▁pil	-2285
▁smo	-2286
iting	-2287
othes	-2288
▁beat	-2289
▁desp	-2290
▁dogs	-2291
▁fake	-2292
▁fres	-2293
▁king	-2294
▁plat	-2295
ential	-2296
▁graph	-2297
▁works	-2298
▁multip	-2299
▁plants	-2300
▁chennai	-2301
▁regular	-2302
▁building	-2303
▁physical	-2304
▁starting	-2305
▁investment	-2306
aur	-2307
bon	-2308
ker	-2309
ste	-2310
▁ai	-2311
▁cb	-2312
ails	-2313
aves	-2314
eria	-2315
icle	-2316
most	-2317
orce	-2318
reme	-2319
utes	-2320
▁bed	-2321
▁mis	-2322
▁rul	-2323
anced	-2324
ource	-2325
vious	-2326
▁deep	-2327
▁suic	-2328
▁grand	-2329
▁hindu	-2330
▁offer	-2331
▁teach	-2332
▁weird	-2333
▁words	-2334
▁compet	-2335
▁letter	-2336
▁sexual	-2337
▁bitcoin	-2338
▁compare	-2339
▁natural	-2340
▁respect	-2341
▁citizens	-2342
▁original	-2343
▁chemistry	-2344
ga	-2345
acy	-2346
ani	-2347
ina	-2348
mon	-2349
nel	-2350
ota	-2351
par	-2352
son	-2353
und	-2354
ided	-2355
▁bur	-2356
▁pra	-2357
▁ram	-2358
▁sem	-2359
▁tar	-2360
▁tit	-2361
ising	-2362
▁chur	-2363
▁cold	-2364
▁fund	-2365
▁half	-2366
▁pros	-2367
▁reci	-2368
gether	-2369
ressed	-2370
▁chall	-2371
▁claim	-2372
▁front	-2373
▁green	-2374
▁shoot	-2375
▁analys	-2376
▁asking	-2377
▁doctor	-2378
▁immigr	-2379
▁inside	-2380
▁review	-2381
▁theory	-2382
▁studies	-2383
▁becoming	-2384
▁together	-2385
▁interested	-2386
▁differences	-2387
erc	-2388
pal	-2389
▁du	-2390
ised	-2391
upid	-2392
▁ali	-2393
▁fit	-2394
▁flu	-2395
▁mel	-2396
▁pal	-2397
▁ple	-2398
▁rev	-2399
▁vac	-2400
ances	-2401
▁coll	-2402
▁kash	-2403
▁math	-2404
▁page	-2405
▁prin	-2406
▁sure	-2407
▁tele	-2408
▁upsc	-2409
▁accom	-2410
▁apple	-2411
▁crush	-2412
▁daugh	-2413
▁exerc	-2414
▁altern	-2415
▁income	-2416
▁killed	-2417
▁record	-2418
▁reject	-2419
▁threat	-2420
▁achieve	-2421
▁certain	-2422
▁partner	-2423
▁talking	-2424
▁constant	-2425
▁signific	-2426
▁according	-2427
▁financial	-2428
by	-2429
att	-2430
ech	-2431
ned	-2432
▁ep	-2433
ises	-2434
ored	-2435
▁joh	-2436
▁mad	-2437
▁sen	-2438
agram	-2439
rated	-2440
▁ball	-2441
▁cbse	-2442
▁coun	-2443
▁once	-2444
▁poor	-2445
ension	-2446
itable	-2447
▁behav	-2448
▁close	-2449
▁corru	-2450
▁final	-2451
▁kashm	-2452
▁quick	-2453
▁sites	-2454
▁total	-2455
ruction	-2456
▁almost	-2457
▁credit	-2458
▁longer	-2459
▁middle	-2460
▁nation	-2461
▁photos	-2462
▁proced	-2463
▁report	-2464
▁stupid	-2465
▁accompl	-2466
▁classes	-2467
▁clothes	-2468
▁collect	-2469
▁content	-2470
▁despite	-2471
▁factors	-2472
▁options	-2473
▁describe	-2474
▁disorder	-2475
▁distance	-2476
▁graduate	-2477
▁overcome	-2478
▁instagram	-2479
▁situation	-2480
▁professional	-2481
cs	-2482
avy	-2483
bar	-2484
cut	-2485
ffe	-2486
mar	-2487
hood	-2488
osis	-2489
road	-2490
rodu	-2491
▁fac	-2492
board	-2493
ength	-2494
inate	-2495
▁camp	-2496
▁cand	-2497
▁expl	-2498
▁gets	-2499
▁iron	-2500
▁porn	-2501
▁sens	-2502
▁told	-2503
ground	-2504
▁adult	-2505
▁analy	-2506
▁defin	-2507
▁docum	-2508
▁drive	-2509
▁femin	-2510
▁songs	-2511
▁style	-2512
▁taken	-2513
llywood	-2514
▁acting	-2515
▁attend	-2516
▁charge	-2517
▁cities	-2518
▁easily	-2519
▁hindus	-2520
▁office	-2521
ological	-2522
▁stories	-2523
▁windows	-2524
▁positive	-2525
▁characteristics	-2526
cel	-2527
ero	-2528
key	-2529
ork	-2530
ials	-2531
iety	-2532
ires	-2533
▁ann	-2534
▁anx	-2535
▁bul	-2536
▁pie	-2537
▁sam	-2538
asing	-2539
cohol	-2540
▁base	-2541
▁diet	-2542
▁emot	-2543
▁evil	-2544
▁film	-2545
▁heat	-2546
▁java	-2547
▁size	-2548
▁viet	-2549
▁weap	-2550
▁cross	-2551
▁exams	-2552
▁hindi	-2553
▁later	-2554
▁sales	-2555
▁buying	-2556
▁entire	-2557
▁faster	-2558
▁includ	-2559
▁needed	-2560
▁perman	-2561
▁player	-2562
▁recent	-2563
fficient	-2564
▁individ	-2565
▁running	-2566
▁advanced	-2567
▁football	-2568
▁material	-2569
▁practice	-2570
▁undergra	-2571
▁currently	-2572
▁developed	-2573
▁expensive	-2574
▁completely	-2575
yl	-2576
ell	-2577
hor	-2578
uge	-2579
cies	-2580
ever	-2581
hest	-2582
racy	-2583
ring	-2584
word	-2585
▁arg	-2586
▁bri	-2587
▁den	-2588
▁fly	-2589
▁que	-2590
▁san	-2591
▁sha	-2592
cient	-2593
itude	-2594
▁cool	-2595
▁espe	-2596
▁eyes	-2597
▁magn	-2598
▁nice	-2599
lished	-2600
▁beaut	-2601
▁court	-2602
▁cover	-2603
▁focus	-2604
▁grade	-2605
▁lower	-2606
▁mains	-2607
▁maths	-2608
▁might	-2609
▁novel	-2610
▁round	-2611
▁steps	-2612
▁trust	-2613
aration	-2614
▁dating	-2615
▁policy	-2616
▁racist	-2617
▁search	-2618
▁alcohol	-2619
▁archite	-2620
▁capital	-2621
▁indones	-2622
▁politic	-2623
▁reading	-2624
▁reasons	-2625
▁restaur	-2626
▁survive	-2627
▁analysis	-2628
▁certific	-2629
▁greatest	-2630
▁especially	-2631
▁intelligence	-2632
▁communication	-2633
ta	-2634
ads	-2635
amp	-2636
ene	-2637
ham	-2638
ids	-2639
xic	-2640
▁17	-2641
▁ip	-2642
ived	-2643
stic	-2644
▁cru	-2645
▁lic	-2646
▁unt	-2647
apers	-2648
ember	-2649
inary	-2650
vered	-2651
▁cash	-2652
▁conc	-2653
▁gram	-2654
▁hosp	-2655
▁jack	-2656
▁prob	-2657
▁rent	-2658
▁stre	-2659
▁vict	-2660
▁wish	-2661
atures	-2662
▁arent	-2663
▁crime	-2664
▁disco	-2665
▁dress	-2666
▁estab	-2667
▁issue	-2668
▁maint	-2669
▁seems	-2670
▁tried	-2671
▁abroad	-2672
▁actual	-2673
▁advert	-2674
▁church	-2675
▁destro	-2676
▁prison	-2677
▁stream	-2678
▁transl	-2679
▁ancient	-2680
▁challen	-2681
▁contrib	-2682
▁created	-2683
▁digital	-2684
▁million	-2685
▁playing	-2686
▁version	-2687
▁everyday	-2688
▁feelings	-2689
▁multiple	-2690
▁planning	-2691
▁platform	-2692
▁recently	-2693
▁sentence	-2694
▁standard	-2695
▁developer	-2696
▁languages	-2697
▁resources	-2698
▁treatment	-2699
▁accomplish	-2700
▁christians	-2701
▁percentage	-2702
▁christianity	-2703
mp	-2704
tm	-2705
ask	-2706
het	-2707
▁21	-2708
▁mb	-2709
▁mi	-2710
▁py	-2711
ancy	-2712
empt	-2713
ighb	-2714
imes	-2715
ival	-2716
ques	-2717
▁bes	-2718
▁bot	-2719
▁jew	-2720
▁ssc	-2721
▁sud	-2722
▁ten	-2723
▁vot	-2724
▁wed	-2725
craft	-2726
iding	-2727
ients	-2728
owers	-2729
rogen	-2730
▁blue	-2731
▁boys	-2732
▁came	-2733
▁conv	-2734
▁drop	-2735
▁file	-2736
▁harm	-2737
▁john	-2738
▁wast	-2739
ention	-2740
lement	-2741
urance	-2742
▁apart	-2743
▁camer	-2744
▁categ	-2745
▁means	-2746
▁older	-2747
▁purch	-2748
▁reach	-2749
▁recru	-2750
▁shows	-2751
▁track	-2752
▁users	-2753
▁voice	-2754
▁worse	-2755
▁affair	-2756
▁afford	-2757
▁animal	-2758
▁neighb	-2759
▁possib	-2760
▁pursue	-2761
▁saying	-2762
▁sister	-2763
▁techni	-2764
▁battery	-2765
▁constit	-2766
▁dollars	-2767
▁extreme	-2768
▁election	-2769
▁politics	-2770
▁democrats	-2771
▁economics	-2772
▁procedure	-2773
▁particular	-2774
▁experienced	-2775
▁preparation	-2776
mb	-2777
ux	-2778
ann	-2779
lls	-2780
ode	-2781
ped	-2782
rew	-2783
uth	-2784
yal	-2785
▁40	-2786
▁ba	-2787
▁ic	-2788
omet	-2789
ried	-2790
▁bac	-2791
▁dip	-2792
▁ess	-2793
▁fed	-2794
▁fig	-2795
▁max	-2796
▁rot	-2797
▁saf	-2798
▁squ	-2799
ended	-2800
icles	-2801
inton	-2802
rency	-2803
urate	-2804
▁born	-2805
▁iran	-2806
▁mist	-2807
▁pred	-2808
▁pune	-2809
▁risk	-2810
▁rule	-2811
▁stri	-2812
▁suff	-2813
▁vill	-2814
▁among	-2815
▁heard	-2816
▁names	-2817
▁needs	-2818
▁occur	-2819
▁separ	-2820
▁somet	-2821
▁whole	-2822
ference	-2823
▁cannot	-2824
▁carbon	-2825
▁celebr	-2826
▁coming	-2827
▁memory	-2828
▁repres	-2829
▁season	-2830
▁simple	-2831
▁therap	-2832
▁wanted	-2833
▁benefit	-2834
▁consult	-2835
▁liberal	-2836
▁minimum	-2837
▁perfect	-2838
▁picture	-2839
▁suicide	-2840
▁vietnam	-2841
▁wouldnt	-2842
▁property	-2843
▁dangerous	-2844
▁functions	-2845
▁structure	-2846
go	-2847
hm	-2848
rs	-2849
bed	-2850
ees	-2851
men	-2852
nic	-2853
oci	-2854
ole	-2855
uly	-2856
▁23	-2857
ends	-2858
onym	-2859
pper	-2860
▁cow	-2861
▁mac	-2862
▁sau	-2863
▁tex	-2864
▁upd	-2865
anish	-2866
ctors	-2867
gress	-2868
iring	-2869
▁geor	-2870
▁gree	-2871
▁guns	-2872
▁jour	-2873
▁late	-2874
▁leag	-2875
▁milk	-2876
▁mole	-2877
▁swed	-2878
▁wall	-2879
▁wife	-2880
▁agree	-2881
▁asian	-2882
▁refer	-2883
▁topic	-2884
▁cancer	-2885
▁candid	-2886
▁flight	-2887
▁korean	-2888
▁remain	-2889
▁speech	-2890
▁unique	-2891
▁address	-2892
▁devices	-2893
▁exactly	-2894
▁knowing	-2895
▁psychop	-2896
▁recover	-2897
▁traffic	-2898
▁written	-2899
▁position	-2900
▁powerful	-2901
▁watching	-2902
▁following	-2903
▁regarding	-2904
▁internship	-2905
▁literature	-2906
▁opportunities	-2907
10	-2908
da	-2909
gl	-2910
ov	-2911
adv	-2912
bol	-2913
lex	-2914
wal	-2915
▁24	-2916
▁25	-2917
▁aw	-2918
fort	-2919
pped	-2920
rate	-2921
▁eye	-2922
▁fel	-2923
▁gre	-2924
▁gst	-2925
▁hon	-2926
▁ias	-2927
▁veh	-2928
iling	-2929
ither	-2930
ivity	-2931
osoph	-2932
▁bomb	-2933
▁burn	-2934
▁dumb	-2935
▁four	-2936
▁grav	-2937
▁hire	-2938
▁mand	-2939
▁meas	-2940
▁moon	-2941
▁note	-2942
▁rock	-2943
▁sold	-2944
▁tall	-2945
▁weak	-2946
▁wont	-2947
▁basis	-2948
▁built	-2949
▁crypt	-2950
▁hands	-2951
▁parts	-2952
▁roman	-2953
itional	-2954
▁assist	-2955
▁associ	-2956
▁author	-2957
▁colour	-2958
▁disadv	-2959
▁forces	-2960
▁anxiety	-2961
▁changes	-2962
▁citizen	-2963
▁convert	-2964
▁details	-2965
▁killing	-2966
▁masturb	-2967
▁methods	-2968
▁network	-2969
▁pattern	-2970
▁wedding	-2971
▁accurate	-2972
▁economic	-2973
▁pictures	-2974
▁programs	-2975
▁influence	-2976
▁sometimes	-2977
▁psychology	-2978
▁electronics	-2979
▁intelligent	-2980
▁personality	-2981
arm	-2982
pur	-2983
ula	-2984
unk	-2985
akes	-2986
face	-2987
ller	-2988
very	-2989
▁dro	-2990
▁dub	-2991
▁lim	-2992
▁mut	-2993
▁naz	-2994
▁oxy	-2995
▁sus	-2996
▁swe	-2997
▁tod	-2998
▁tor	-2999
ategy	-3000
izing	-3001
▁baby	-3002
▁band	-3003
▁feed	-3004
▁fish	-3005
▁forg	-3006
▁neut	-3007
▁poly	-3008
▁rout	-3009
▁trad	-3010
▁user	-3011
▁went	-3012
utions	-3013
▁enter	-3014
▁gives	-3015
▁likes	-3016
▁looks	-3017
▁minor	-3018
▁peace	-3019
isation	-3020
▁became	-3021
▁campus	-3022
▁center	-3023
▁easier	-3024
▁height	-3025
▁listen	-3026
▁master	-3027
▁muscle	-3028
▁papers	-3029
▁reduce	-3030
▁billion	-3031
▁channel	-3032
▁leaders	-3033
▁manager	-3034
▁realize	-3035
▁receive	-3036
▁whether	-3037
▁daughter	-3038
▁features	-3039
▁strategy	-3040
▁engineers	-3041
▁independent	-3042
ob	-3043
ox	-3044
ali	-3045
ems	-3046
lor	-3047
reg	-3048
rif	-3049
rum	-3050
uls	-3051
▁90	-3052
ceed	-3053
ingu	-3054
iter	-3055
reng	-3056
rome	-3057
sing	-3058
soft	-3059
tain	-3060
uing	-3061
xual	-3062
▁bsc	-3063
▁dim	-3064
▁enc	-3065
▁gam	-3066
▁jes	-3067
▁sin	-3068
▁tro	-3069
aking	-3070
ounds	-3071
pping	-3072
rible	-3073
▁deli	-3074
▁five	-3075
▁hear	-3076
▁lawy	-3077
▁mbbs	-3078
▁rain	-3079
▁remo	-3080
▁btech	-3081
▁crack	-3082
▁equal	-3083
▁harry	-3084
▁hotel	-3085
▁local	-3086
▁motor	-3087
▁nepal	-3088
▁prior	-3089
▁radio	-3090
▁range	-3091
▁sense	-3092
▁truth	-3093
▁until	-3094
▁weeks	-3095
ilities	-3096
▁action	-3097
▁anonym	-3098
▁choice	-3099
▁consum	-3100
▁corpor	-3101
▁france	-3102
▁groups	-3103
▁histor	-3104
▁itself	-3105
▁latest	-3106
▁league	-3107
▁length	-3108
▁member	-3109
▁murder	-3110
▁planet	-3111
▁resist	-3112
▁street	-3113
▁sudden	-3114
▁target	-3115
▁videos	-3116
▁convers	-3117
▁discuss	-3118
▁himself	-3119
▁italian	-3120
▁mention	-3121
▁quantum	-3122
▁replace	-3123
▁spanish	-3124
▁continue	-3125
▁contract	-3126
▁evidence	-3127
▁maintain	-3128
▁majority	-3129
▁movement	-3130
▁previous	-3131
▁remember	-3132
▁subjects	-3133
▁insurance	-3134
▁technical	-3135
▁activities	-3136
▁background	-3137
▁developing	-3138
▁narcissist	-3139
▁construction	-3140
▁relationships	-3141
▁accomplishments	-3142
pr	-3143
akh	-3144
asc	-3145
ban	-3146
old	-3147
pro	-3148
▁dy	-3149
▁ny	-3150
▁od	-3151
ales	-3152
ault	-3153
full	-3154
idge	-3155
iles	-3156
itar	-3157
lied	-3158
olic	-3159
otic	-3160
▁ber	-3161
▁dat	-3162
▁ice	-3163
▁lay	-3164
▁mah	-3165
▁nig	-3166
▁pan	-3167
▁rad	-3168
▁six	-3169
▁wat	-3170
ached	-3171
aries	-3172
cript	-3173
ental	-3174
ester	-3175
iforn	-3176
ously	-3177
ulate	-3178
where	-3179
▁adop	-3180
▁airl	-3181
▁asia	-3182
▁fair	-3183
▁gand	-3184
▁liqu	-3185
▁pupp	-3186
▁rape	-3187
▁road	-3188
▁sche	-3189
▁slow	-3190
▁soon	-3191
▁wood	-3192
change	-3193
▁colon	-3194
▁crazy	-3195
▁freed	-3196
▁fully	-3197
▁jesus	-3198
▁judge	-3199
▁oppos	-3200
▁photo	-3201
▁plant	-3202
▁shall	-3203
▁taxes	-3204
▁trade	-3205
▁veget	-3206
▁conver	-3207
▁decide	-3208
▁define	-3209
▁differ	-3210
▁double	-3211
▁empire	-3212
▁paying	-3213
▁regist	-3214
▁sector	-3215
▁streng	-3216
▁symbol	-3217
▁temper	-3218
▁trumps	-3219
▁central	-3220
▁clinton	-3221
▁destroy	-3222
▁kashmir	-3223
▁legally	-3224
▁respond	-3225
▁californ	-3226
▁changing	-3227
▁customer	-3228
▁inspired	-3229
▁pregnant	-3230
▁reaction	-3231
▁shouldnt	-3232
▁sleeping	-3233
▁speaking	-3234
▁straight	-3235
▁determine	-3236
▁evolution	-3237
▁generally	-3238
▁philosoph	-3239
▁importance	-3240
▁individual	-3241
▁placements	-3242
▁certificate	-3243
▁performance	-3244
ex	-3245
my	-3246
sh	-3247
oma	-3248
oss	-3249
ply	-3250
put	-3251
▁ib	-3252
▁pi	-3253
cast	-3254
cles	-3255
erve	-3256
gery	-3257
gypt	-3258
icks	-3259
itor	-3260
ores	-3261
time	-3262
▁fal	-3263
▁lea	-3264
▁lif	-3265
▁msc	-3266
▁ran	-3267
▁sad	-3268
▁spo	-3269
atory	-3270
icate	-3271
press	-3272
riate	-3273
right	-3274
▁audi	-3275
▁fram	-3276
▁hack	-3277
▁karn	-3278
▁mart	-3279
▁morn	-3280
▁pick	-3281
▁quit	-3282
▁rise	-3283
▁scri	-3284
▁sick	-3285
▁snap	-3286
▁subs	-3287
▁york	-3288
▁zero	-3289
▁andor	-3290
▁blind	-3291
▁egypt	-3292
▁glass	-3293
▁mexic	-3294
▁raise	-3295
▁reven	-3296
▁sympt	-3297
itation	-3298
mission	-3299
▁budget	-3300
▁compon	-3301
▁cutoff	-3302
▁damage	-3303
▁ethnic	-3304
▁giving	-3305
▁growth	-3306
▁handle	-3307
▁havent	-3308
▁integr	-3309
▁origin	-3310
▁oxygen	-3311
▁phones	-3312
▁screen	-3313
▁simply	-3314
▁source	-3315
▁sports	-3316
▁todays	-3317
▁wealth	-3318
▁biology	-3319
▁members	-3320
▁morning	-3321
▁produce	-3322
▁profile	-3323
▁results	-3324
▁selling	-3325
▁tourist	-3326
▁trouble	-3327
▁various	-3328
▁washing	-3329
▁weapons	-3330
▁academic	-3331
▁accepted	-3332
▁accounts	-3333
▁applying	-3334
▁atheists	-3335
▁produced	-3336
▁projects	-3337
▁employees	-3338
▁attractive	-3339
▁challenges	-3340
▁connection	-3341
▁definition	-3342
▁restaurant	-3343
▁constitution	-3344
▁disadvantages	-3345
ji	-3346
to	-3347
aka	-3348
eal	-3349
ida	-3350
iit	-3351
ili	-3352
ris	-3353
uff	-3354
une	-3355
war	-3356
▁ut	-3357
▁ye	-3358
aged	-3359
anda	-3360
char	-3361
ghan	-3362
ipur	-3363
uses	-3364
▁300	-3365
▁500	-3366
▁ads	-3367
▁bag	-3368
▁bon	-3369
▁cos	-3370
▁dav	-3371
▁der	-3372
▁exc	-3373
▁lad	-3374
▁raj	-3375
▁sea	-3376
▁voc	-3377
fully	-3378
inger	-3379
pects	-3380
▁copy	-3381
▁dipl	-3382
▁drug	-3383
▁felt	-3384
▁gift	-3385
▁load	-3386
▁mong	-3387
▁sams	-3388
▁seat	-3389
▁shut	-3390
▁spir	-3391
▁tend	-3392
▁tren	-3393
▁trip	-3394
▁turk	-3395
▁vote	-3396
▁cards	-3397
▁cells	-3398
▁chick	-3399
▁image	-3400
▁meant	-3401
▁proof	-3402
▁rules	-3403
▁sever	-3404
▁solar	-3405
▁third	-3406
▁touch	-3407
▁battle	-3408
▁bengal	-3409
▁crimes	-3410
▁events	-3411
▁except	-3412
▁favour	-3413
▁hitler	-3414
▁hotels	-3415
▁obtain	-3416
▁points	-3417
▁script	-3418
▁stress	-3419
▁supply	-3420
▁transg	-3421
atically	-3422
ropriate	-3423
▁african	-3424
▁applied	-3425
▁attempt	-3426
▁balance	-3427
▁besides	-3428
▁britain	-3429
▁continu	-3430
▁express	-3431
▁freedom	-3432
▁largest	-3433
▁maximum	-3434
▁nations	-3435
▁peoples	-3436
▁samsung	-3437
▁surgery	-3438
▁trading	-3439
▁drinking	-3440
▁exercise	-3441
▁somebody	-3442
▁startups	-3443
▁violence	-3444
▁europeans	-3445
▁implement	-3446
▁permanent	-3447
▁represent	-3448
▁california	-3449
▁production	-3450
▁terrorists	-3451
▁temperature	-3452
18	-3453
ns	-3454
ok	-3455
rm	-3456
des	-3457
erg	-3458
log	-3459
olk	-3460
omy	-3461
rel	-3462
set	-3463
▁dc	-3464
▁hd	-3465
▁hi	-3466
▁pm	-3467
▁ss	-3468
▁ug	-3469
ains	-3470
eral	-3471
ffee	-3472
gers	-3473
head	-3474
hers	-3475
iful	-3476
iner	-3477
ocur	-3478
term	-3479
▁asp	-3480
▁cab	-3481
▁cig	-3482
▁cro	-3483
▁cup	-3484
▁dad	-3485
▁exe	-3486
▁fee	-3487
▁lie	-3488
▁lin	-3489
▁rif	-3490
▁sky	-3491
▁tan	-3492
▁tom	-3493
▁typ	-3494
andom	-3495
ondon	-3496
▁acid	-3497
▁bike	-3498
▁cath	-3499
▁dise	-3500
▁fees	-3501
▁loan	-3502
▁rude	-3503
▁wait	-3504
▁wake	-3505
ending	-3506
▁abuse	-3507
▁aiims	-3508
▁below	-3509
▁carry	-3510
▁condu	-3511
▁forms	-3512
▁noise	-3513
▁prove	-3514
▁shoes	-3515
▁solid	-3516
▁stage	-3517
▁truly	-3518
▁valid	-3519
▁arrest	-3520
▁bachel	-3521
▁coffee	-3522
▁contro	-3523
▁detect	-3524
▁dreams	-3525
▁either	-3526
▁formed	-3527
▁gender	-3528
▁london	-3529
▁moment	-3530
▁profit	-3531
▁scared	-3532
▁seeing	-3533
▁summer	-3534
▁switch	-3535
▁beliefs	-3536
▁driving	-3537
▁finance	-3538
▁formula	-3539
▁islamic	-3540
▁quickly	-3541
▁serious	-3542
▁employee	-3543
▁exchange	-3544
▁attention	-3545
▁beautiful	-3546
▁microsoft	-3547
▁placement	-3548
▁transport	-3549
▁acceptable	-3550
▁characters	-3551
▁immigrants	-3552
▁influenced	-3553
▁physically	-3554
▁scientific	-3555
▁statistics	-3556
▁republicans	-3557
▁responsible	-3558
▁applications	-3559
▁architecture	-3560
▁conservative	-3561
▁requirements	-3562
ae	-3563
hy	-3564
jp	-3565
can	-3566
cos	-3567
dom	-3568
gor	-3569
ino	-3570
irt	-3571
ria	-3572
sec	-3573
▁ja	-3574
ably	-3575
ades	-3576
back	-3577
bert	-3578
bing	-3579
chat	-3580
like	-3581
rial	-3582
thon	-3583
umin	-3584
viet	-3585
▁199	-3586
▁aim	-3587
▁don	-3588
▁dut	-3589
▁fra	-3590
▁fru	-3591
▁gar	-3592
▁ira	-3593
▁las	-3594
aging	-3595
aster	-3596
estic	-3597
force	-3598
icted	-3599
olars	-3600
omach	-3601
place	-3602
usive	-3603
works	-3604
▁bits	-3605
▁decl	-3606
▁flat	-3607
▁fuck	-3608
▁hell	-3609
▁hill	-3610
▁loss	-3611
▁mars	-3612
▁pret	-3613
▁pump	-3614
▁rail	-3615
▁suck	-3616
▁whos	-3617
▁actor	-3618
▁brown	-3619
▁diagn	-3620
▁dubai	-3621
▁ended	-3622
▁entry	-3623
▁floor	-3624
▁funds	-3625
▁lines	-3626
▁loved	-3627
▁occup	-3628
▁smell	-3629
▁takes	-3630
▁teeth	-3631
▁tools	-3632
▁waste	-3633
idering	-3634
pective	-3635
▁demand	-3636
▁depart	-3637
▁gandhi	-3638
▁losing	-3639
▁native	-3640
▁palest	-3641
▁theyre	-3642
▁ticket	-3643
▁turkey	-3644
▁values	-3645
▁artific	-3646
▁complex	-3647
▁gravity	-3648
▁highest	-3649
▁message	-3650
▁payment	-3651
▁sources	-3652
▁treated	-3653
▁turkish	-3654
▁usually	-3655
▁wearing	-3656
▁category	-3657
▁decision	-3658
▁directly	-3659
▁document	-3660
▁invented	-3661
▁involved	-3662
▁location	-3663
▁neighbor	-3664
▁password	-3665
▁purchase	-3666
▁relation	-3667
▁theories	-3668
▁biography	-3669
▁happening	-3670
▁terrorist	-3671
▁transform	-3672
▁completing	-3673
▁electronic	-3674
▁generation	-3675
▁historical	-3676
▁motivation	-3677
▁processing	-3678
▁techniques	-3679
▁advertising	-3680
▁considering	-3681
▁psychopaths	-3682
▁significance	-3683
▁specifically	-3684
▁conservatives	-3685
▁environmental	-3686
▁manufacturing	-3687
bu	-3688
cd	-3689
ey	-3690
ii	-3691
asm	-3692
ati	-3693
gel	-3694
ica	-3695
ray	-3696
rie	-3697
ulf	-3698
yan	-3699
zer	-3700
▁35	-3701
▁lg	-3702
▁ox	-3703
▁pg	-3704
athy	-3705
dies	-3706
ford	-3707
mers	-3708
more	-3709
otes	-3710
vere	-3711
▁amb	-3712
▁aud	-3713
▁deb	-3714
▁ece	-3715
▁hat	-3716
▁nam	-3717
▁rap	-3718
▁ven	-3719
▁via	-3720
antic	-3721
arily	-3722
arter	-3723
itter	-3724
olute	-3725
▁cart	-3726
▁defe	-3727
▁enem	-3728
▁hall	-3729
▁mark	-3730
▁rice	-3731
▁scen	-3732
▁tank	-3733
▁town	-3734
▁virt	-3735
action	-3736
coming	-3737
▁anime	-3738
▁bible	-3739
▁catch	-3740
▁chest	-3741
▁cloth	-3742
▁drugs	-3743
▁false	-3744
▁foods	-3745
▁fresh	-3746
▁habit	-3747
▁hypoc	-3748
▁penis	-3749
▁prime	-3750
▁print	-3751
▁saudi	-3752
▁serve	-3753
▁signs	-3754
▁storm	-3755
▁sugar	-3756
▁union	-3757
▁urine	-3758
▁afghan	-3759
▁device	-3760
▁nature	-3761
▁obsess	-3762
▁punish	-3763
▁random	-3764
▁saving	-3765
▁soviet	-3766
▁spread	-3767
▁square	-3768
▁affairs	-3769
▁century	-3770
▁comfort	-3771
▁couldnt	-3772
▁cricket	-3773
▁distrib	-3774
▁doctors	-3775
▁growing	-3776
▁setting	-3777
▁absolute	-3778
▁accident	-3779
▁affected	-3780
▁aircraft	-3781
▁approach	-3782
▁behavior	-3783
▁congress	-3784
▁expected	-3785
▁progress	-3786
▁selected	-3787
▁sexually	-3788
▁suddenly	-3789
▁candidate	-3790
▁extremely	-3791
▁favourite	-3792
▁commercial	-3793
▁corruption	-3794
▁opportunity	-3795
▁transgender	-3796
15	-3797
17	-3798
gi	-3799
ja	-3800
po	-3801
gar	-3802
lin	-3803
rep	-3804
wan	-3805
▁22	-3806
▁ax	-3807
▁ie	-3808
▁na	-3809
▁rs	-3810
bles	-3811
down	-3812
ened	-3813
iers	-3814
just	-3815
list	-3816
mail	-3817
olar	-3818
room	-3819
sequ	-3820
▁bjp	-3821
▁cau	-3822
▁gap	-3823
▁ham	-3824
▁kit	-3825
▁mit	-3826
▁nur	-3827
▁obc	-3828
▁ord	-3829
▁scr	-3830
▁sou	-3831
▁tel	-3832
▁unf	-3833
▁vel	-3834
ataka	-3835
books	-3836
duate	-3837
inity	-3838
lands	-3839
orrow	-3840
▁2000	-3841
▁capt	-3842
▁clos	-3843
▁cope	-3844
▁fash	-3845
▁genu	-3846
▁hang	-3847
▁lack	-3848
▁nort	-3849
▁park	-3850
▁rein	-3851
▁ring	-3852
▁root	-3853
▁shot	-3854
▁swim	-3855
▁twin	-3856
▁walk	-3857
▁wild	-3858
antage	-3859
gorith	-3860
olkata	-3861
▁above	-3862
▁aware	-3863
▁cycle	-3864
▁datab	-3865
▁embar	-3866
▁extra	-3867
▁frame	-3868
▁frequ	-3869
▁heavy	-3870
▁integ	-3871
▁italy	-3872
▁items	-3873
▁journ	-3874
▁logic	-3875
▁loves	-3876
▁malay	-3877
▁mouth	-3878
▁piece	-3879
▁pilot	-3880
▁posts	-3881
▁texas	-3882
▁whose	-3883
ologies	-3884
▁across	-3885
▁active	-3886
▁belong	-3887
▁execut	-3888
▁ignore	-3889
▁interp	-3890
▁leader	-3891
▁linked	-3892
▁malays	-3893
▁marvel	-3894
▁owners	-3895
▁please	-3896
▁retail	-3897
▁safety	-3898
▁traits	-3899
▁update	-3900
▁virgin	-3901
▁wonder	-3902
▁atheist	-3903
▁blocked	-3904
▁chicken	-3905
▁england	-3906
▁feature	-3907
▁leaving	-3908
▁package	-3909
▁philipp	-3910
▁several	-3911
▁showing	-3912
▁strateg	-3913
▁activity	-3914
▁criteria	-3915
▁elements	-3916
▁literary	-3917
▁medicine	-3918
▁messages	-3919
▁minister	-3920
▁officers	-3921
▁reliable	-3922
▁scholars	-3923
▁strength	-3924
▁teachers	-3925
▁terrible	-3926
▁bollywood	-3927
▁calculate	-3928
▁cryptocur	-3929
▁democracy	-3930
▁followers	-3931
▁including	-3932
▁investing	-3933
▁karnataka	-3934
▁published	-3935
▁statement	-3936
▁constantly	-3937
▁democratic	-3938
▁appropriate	-3939
▁automatically	-3940
11	-3941
21	-3942
25	-3943
sq	-3944
vi	-3945
yr	-3946
bre	-3947
ias	-3948
ifa	-3949
olf	-3950
pet	-3951
rom	-3952
uel	-3953
uto	-3954
▁27	-3955
▁ko	-3956
▁tu	-3957
anka	-3958
hern	-3959
iser	-3960
lder	-3961
lymp	-3962
oles	-3963
raid	-3964
rene	-3965
▁bay	-3966
▁ble	-3967
▁bow	-3968
▁dry	-3969
▁eff	-3970
▁fet	-3971
▁fur	-3972
▁gym	-3973
▁ios	-3974
▁ken	-3975
▁map	-3976
▁mir	-3977
▁neu	-3978
▁ped	-3979
▁ric	-3980
▁sbi	-3981
▁sri	-3982
▁syn	-3983
▁wit	-3984
asion	-3985
ately	-3986
inste	-3987
light	-3988
▁2019	-3989
▁arts	-3990
▁braz	-3991
▁diam	-3992
▁died	-3993
▁disp	-3994
▁elig	-3995
▁fine	-3996
▁fort	-3997
▁gala	-3998
▁gone	-3999
▁hero	-4000
▁huge	-4001
▁imag	-4002
▁init	-4003
▁kept	-4004
▁luck	-4005
▁nose	-4006
▁pure	-4007
▁sand	-4008
▁spot	-4009
▁stal	-4010
▁susp	-4011
▁upon	-4012
▁whom	-4013
▁wire	-4014
▁admin	-4015
▁admit	-4016
▁alive	-4017
▁angry	-4018
▁banks	-4019
▁genoc	-4020
▁james	-4021
▁keeps	-4022
▁mahar	-4023
▁manip	-4024
▁mtech	-4025
▁olymp	-4026
▁pharm	-4027
▁spain	-4028
▁steel	-4029
▁strug	-4030
▁tells	-4031
▁throw	-4032
▁tired	-4033
▁title	-4034
▁actors	-4035
▁afraid	-4036
▁analyt	-4037
▁astron	-4038
▁banned	-4039
▁breast	-4040
▁breath	-4041
▁caused	-4042
▁cigare	-4043
▁circum	-4044
▁coding	-4045
▁couple	-4046
▁disapp	-4047
▁jewish	-4048
▁mongol	-4049
▁mostly	-4050
▁played	-4051
▁princi	-4052
▁propag	-4053
▁resign	-4054
▁resume	-4055
▁submit	-4056
▁sweden	-4057
▁turned	-4058
▁worlds	-4059
▁ability	-4060
▁anybody	-4061
▁assault	-4062
▁banking	-4063
▁concent	-4064
▁consist	-4065
▁counter	-4066
▁deleted	-4067
▁disease	-4068
▁failure	-4069
▁females	-4070
▁finding	-4071
▁genuine	-4072
▁kolkata	-4073
▁neutral	-4074
▁objects	-4075
▁persons	-4076
▁recipes	-4077
▁species	-4078
▁stomach	-4079
▁testing	-4080
▁algorith	-4081
▁calories	-4082
▁catholic	-4083
▁commerce	-4084
▁creative	-4085
▁equation	-4086
▁hospital	-4087
▁hydrogen	-4088
▁improved	-4089
▁malaysia	-4090
▁opposite	-4091
▁particip	-4092
▁relative	-4093
▁shooting	-4094
▁symptoms	-4095
▁visiting	-4096
▁condition	-4097
▁depressed	-4098
▁efficient	-4099
▁establish	-4100
▁potential	-4101
▁preparing	-4102
▁artificial	-4103
▁australian	-4104
▁discovered	-4105
▁profession	-4106
▁smartphone	-4107
▁immigration	-4108
▁politicians	-4109
▁understanding	-4110
do	-4111
mc	-4112
mi	-4113
pu	-4114
rd	-4115
wa	-4116
asa	-4117
hab	-4118
how	-4119
isc	-4120
lig	-4121
ums	-4122
vil	-4123
▁mr	-4124
ario	-4125
asht	-4126
host	-4127
stru	-4128
ties	-4129
ught	-4130
year	-4131
▁aer	-4132
▁dou	-4133
▁dur	-4134
▁fro	-4135
▁iim	-4136
▁ker	-4137
▁nav	-4138
▁sik	-4139
celer	-4140
chool	-4141
cious	-4142
cular	-4143
etime	-4144
ially	-4145
iance	-4146
icial	-4147
rance	-4148
uting	-4149
▁anti	-4150
▁arms	-4151
▁budd	-4152
▁cogn	-4153
▁coin	-4154
▁drag	-4155
▁feet	-4156
▁fill	-4157
▁goal	-4158
▁gods	-4159
▁goes	-4160
▁isis	-4161
▁kiss	-4162
▁lakh	-4163
▁libr	-4164
▁meat	-4165
▁plus	-4166
▁prem	-4167
▁repe	-4168
▁sout	-4169
▁tick	-4170
▁till	-4171
▁tour	-4172
▁weed	-4173
ensity	-4174
enture	-4175
idents	-4176
inated	-4177
isions	-4178
orters	-4179
ortion	-4180
ousand	-4181
vision	-4182
▁areas	-4183
▁bangl	-4184
▁blame	-4185
▁capac	-4186
▁cases	-4187
▁comed	-4188
▁david	-4189
▁decre	-4190
▁feels	-4191
▁fixed	-4192
▁ideal	-4193
▁metal	-4194
▁moral	-4195
▁owner	-4196
▁prote	-4197
▁ready	-4198
▁spons	-4199
▁thats	-4200
▁tough	-4201
▁virus	-4202
▁waves	-4203
▁border	-4204
▁brazil	-4205
▁centre	-4206
▁claims	-4207
▁helped	-4208
▁launch	-4209
▁motion	-4210
▁passed	-4211
▁potter	-4212
▁python	-4213
▁status	-4214
▁amazing	-4215
▁anymore	-4216
▁article	-4217
▁charges	-4218
▁conduct	-4219
▁divorce	-4220
▁earning	-4221
▁fashion	-4222
▁harmful	-4223
▁helpful	-4224
▁hillary	-4225
▁introdu	-4226
▁joining	-4227
▁minutes	-4228
▁reality	-4229
▁release	-4230
▁reviews	-4231
▁surface	-4232
▁vehicle	-4233
▁administ	-4234
▁attitude	-4235
▁comments	-4236
▁domestic	-4237
▁existing	-4238
▁identify	-4239
▁identity	-4240
▁internal	-4241
▁mentally	-4242
▁passport	-4243
▁possibly	-4244
▁pursuing	-4245
▁russians	-4246
▁snapchat	-4247
▁suitable	-4248
▁thousand	-4249
▁whatsapp	-4250
▁existence	-4251
▁mechanism	-4252
▁practical	-4253
▁pregnancy	-4254
▁traveling	-4255
▁businesses	-4256
▁republican	-4257
▁afghanistan	-4258
▁electricity	-4259
▁probability	-4260
▁scholarship	-4261
▁consideration	-4262
ij	-4263
ka	-4264
iri	-4265
nes	-4266
oty	-4267
ras	-4268
ros	-4269
top	-4270
xit	-4271
▁70	-4272
▁hr	-4273
▁ju	-4274
▁ll	-4275
▁mc	-4276
▁ul	-4277
care	-4278
iant	-4279
mber	-4280
mbly	-4281
ocol	-4282
rict	-4283
rier	-4284
rote	-4285
uals	-4286
▁bip	-4287
▁boo	-4288
▁cas	-4289
▁gov	-4290
▁haw	-4291
▁hun	-4292
▁ine	-4293
▁jio	-4294
▁led	-4295
▁mos	-4296
▁nut	-4297
▁rat	-4298
▁sac	-4299
▁sna	-4300
agers	-4301
chain	-4302
ching	-4303
enger	-4304
fered	-4305
inder	-4306
ishes	-4307
itors	-4308
usion	-4309
▁1000	-4310
▁asse	-4311
▁atom	-4312
▁cats	-4313
▁cure	-4314
▁debt	-4315
▁dece	-4316
▁dies	-4317
▁epis	-4318
▁fans	-4319
▁fant	-4320
▁flor	-4321
▁gang	-4322
▁inde	-4323
▁iraq	-4324
▁jump	-4325
▁lazy	-4326
▁lord	-4327
▁mich	-4328
▁myth	-4329
▁navy	-4330
▁pant	-4331
▁paul	-4332
▁repl	-4333
▁snow	-4334
▁spin	-4335
▁stor	-4336
▁uber	-4337
▁wise	-4338
angers	-4339
ricult	-4340
▁angle	-4341
▁bread	-4342
▁broke	-4343
▁chart	-4344
▁circu	-4345
▁dance	-4346
▁faith	-4347
▁fault	-4348
▁georg	-4349
▁hasnt	-4350
▁homes	-4351
▁intel	-4352
▁mount	-4353
▁paint	-4354
▁queen	-4355
▁quota	-4356
▁satis	-4357
▁stick	-4358
▁subst	-4359
▁tight	-4360
▁trave	-4361
▁wasnt	-4362
▁wrote	-4363
versity	-4364
▁adjust	-4365
▁arabia	-4366
▁artist	-4367
▁assume	-4368
▁belief	-4369
▁bigger	-4370
▁brands	-4371
▁brexit	-4372
▁camera	-4373
▁cancel	-4374
▁critic	-4375
▁delete	-4376
▁depend	-4377
▁domain	-4378
▁failed	-4379
▁figure	-4380
▁flying	-4381
▁forget	-4382
▁gaming	-4383
▁images	-4384
▁infect	-4385
▁insult	-4386
▁leaves	-4387
▁region	-4388
▁reserv	-4389
▁spirit	-4390
▁taught	-4391
▁worked	-4392
ictional	-4393
▁actress	-4394
▁clients	-4395
▁comment	-4396
▁consequ	-4397
▁corrupt	-4398
▁fiction	-4399
▁install	-4400
▁limited	-4401
▁nigeria	-4402
▁players	-4403
▁protest	-4404
▁publish	-4405
▁recruit	-4406
▁reprodu	-4407
▁section	-4408
▁sitting	-4409
▁therapy	-4410
▁turning	-4411
▁virtual	-4412
▁agricult	-4413
▁breaking	-4414
▁clothing	-4415
▁convince	-4416
▁currency	-4417
▁distingu	-4418
▁investig	-4419
▁marrying	-4420
▁opinions	-4421
▁policies	-4422
▁provided	-4423
▁rational	-4424
▁rejected	-4425
▁released	-4426
▁someones	-4427
▁superior	-4428
▁supposed	-4429
▁teenager	-4430
▁upcoming	-4431
▁assistant	-4432
▁attracted	-4433
▁celebrity	-4434
▁connected	-4435
▁corporate	-4436
▁designing	-4437
▁direction	-4438
▁materials	-4439
▁scientist	-4440
▁affordable	-4441
▁conditions	-4442
▁industrial	-4443
▁examination	-4444
▁perspective	-4445
▁philippines	-4446
▁significant	-4447
▁conversation	-4448
▁undergraduate	-4449
bl	-4450
gu	-4451
ky	-4452
any	-4453
asp	-4454
box	-4455
bra	-4456
dra	-4457
hop	-4458
ici	-4459
ief	-4460
ils	-4461
ini	-4462
nov	-4463
ony	-4464
oop	-4465
rem	-4466
ril	-4467
sis	-4468
tml	-4469
▁bc	-4470
▁bs	-4471
▁iv	-4472
ania	-4473
bits	-4474
dule	-4475
ener	-4476
hold	-4477
iced	-4478
irty	-4479
lier	-4480
life	-4481
omen	-4482
osit	-4483
oura	-4484
outs	-4485
rass	-4486
writ	-4487
▁194	-4488
▁atm	-4489
▁fle	-4490
▁idi	-4491
▁mas	-4492
▁sar	-4493
▁seo	-4494
▁veg	-4495
alled	-4496
arian	-4497
enses	-4498
erior	-4499
heast	-4500
itals	-4501
ively	-4502
ordon	-4503
otech	-4504
otics	-4505
▁asks	-4506
▁bond	-4507
▁bull	-4508
▁chat	-4509
▁clin	-4510
▁excl	-4511
▁fasc	-4512
▁flag	-4513
▁heav	-4514
▁hide	-4515
▁hole	-4516
▁hope	-4517
▁html	-4518
▁jail	-4519
▁jose	-4520
▁khan	-4521
▁lies	-4522
▁mail	-4523
▁mens	-4524
▁path	-4525
▁poem	-4526
▁seed	-4527
▁solo	-4528
▁stan	-4529
▁syll	-4530
▁synd	-4531
▁trig	-4532
▁wwii	-4533
ancing	-4534
charge	-4535
ctures	-4536
iation	-4537
ternal	-4538
▁calls	-4539
▁celeb	-4540
▁cruel	-4541
▁essay	-4542
▁firms	-4543
▁freel	-4544
▁ghost	-4545
▁ignor	-4546
▁kinds	-4547
▁labor	-4548
▁magic	-4549
▁memor	-4550
▁phase	-4551
▁proud	-4552
▁shock	-4553
▁toler	-4554
chester	-4555
instein	-4556
ivalent	-4557
ologist	-4558
reprene	-4559
▁behavi	-4560
▁boards	-4561
▁bodies	-4562
▁compar	-4563
▁estate	-4564
▁expand	-4565
▁gordon	-4566
▁hatred	-4567
▁homose	-4568
▁hostel	-4569
▁medium	-4570
▁powers	-4571
▁prices	-4572
▁refuge	-4573
▁regret	-4574
▁senior	-4575
▁server	-4576
▁tempor	-4577
▁writer	-4578
▁acceler	-4579
▁advance	-4580
▁airport	-4581
▁angular	-4582
▁appears	-4583
▁easiest	-4584
▁experim	-4585
▁florida	-4586
▁forever	-4587
▁offered	-4588
▁opening	-4589
▁passion	-4590
▁putting	-4591
▁quorans	-4592
▁records	-4593
▁scratch	-4594
▁smoking	-4595
▁stopped	-4596
▁succeed	-4597
▁telling	-4598
▁writers	-4599
▁abortion	-4600
▁airlines	-4601
▁articles	-4602
▁creation	-4603
▁cultural	-4604
▁designer	-4605
▁eligible	-4606
▁employer	-4607
▁entrance	-4608
▁keyboard	-4609
▁palestin	-4610
▁provides	-4611
▁syndrome	-4612
▁teaching	-4613
ifications	-4614
▁advantage	-4615
▁everybody	-4616
▁indonesia	-4617
▁particles	-4618
▁recognize	-4619
▁undergrad	-4620
▁workplace	-4621
▁automation	-4622
▁biological	-4623
▁blockchain	-4624
▁components	-4625
▁confidence	-4626
▁equivalent	-4627
▁friendship	-4628
▁operations	-4629
▁personally	-4630
▁scientists	-4631
▁television	-4632
▁transition	-4633
▁underrated	-4634
▁washington	-4635
▁alternative	-4636
▁effectively	-4637
▁experiences	-4638
▁recommended	-4639
▁alternatives	-4640
30	-4641
af	-4642
bc	-4643
js	-4644
ki	-4645
ti	-4646
wh	-4647
ada	-4648
adu	-4649
ael	-4650
agn	-4651
ato	-4652
bel	-4653
bes	-4654
cts	-4655
ery	-4656
gun	-4657
irm	-4658
jee	-4659
met	-4660
oca	-4661
pos	-4662
the	-4663
vin	-4664
▁45	-4665
▁80	-4666
▁cu	-4667
▁ii	-4668
▁kg	-4669
▁lu	-4670
bric	-4671
chen	-4672
desh	-4673
ilty	-4674
irts	-4675
onic	-4676
play	-4677
ruct	-4678
▁cgl	-4679
▁ens	-4680
▁gif	-4681
▁inj	-4682
▁jer	-4683
▁sup	-4684
▁tes	-4685
▁ult	-4686
▁unc	-4687
▁wel	-4688
adesh	-4689
aling	-4690
eding	-4691
idden	-4692
iform	-4693
night	-4694
ocity	-4695
tical	-4696
under	-4697
▁beef	-4698
▁boss	-4699
▁bott	-4700
▁butt	-4701
▁desk	-4702
▁dish	-4703
▁dual	-4704
▁fifa	-4705
▁flip	-4706
▁flow	-4707
▁gave	-4708
▁legs	-4709
▁mode	-4710
▁poll	-4711
▁push	-4712
▁rene	-4713
▁sequ	-4714
▁sunn	-4715
▁unit	-4716
▁zeal	-4717
anches	-4718
ashtra	-4719
ediate	-4720
encies	-4721
ertain	-4722
ipment	-4723
rities	-4724
▁added	-4725
▁blogs	-4726
▁caste	-4727
▁chlor	-4728
▁cream	-4729
▁dying	-4730
▁goods	-4731
▁guide	-4732
▁honey	-4733
▁infra	-4734
▁innov	-4735
▁latin	-4736
▁patri	-4737
▁rates	-4738
▁relev	-4739
▁reply	-4740
▁rifle	-4741
▁scale	-4742
▁skill	-4743
▁stars	-4744
▁stone	-4745
▁stuff	-4746
▁tooth	-4747
▁turks	-4748
▁worry	-4749
▁wrest	-4750
▁youth	-4751
ensions	-4752
▁aliens	-4753
▁alumin	-4754
▁arabic	-4755
▁asians	-4756
▁assass	-4757
▁attorn	-4758
▁broken	-4759
▁collap	-4760
▁combat	-4761
▁fabric	-4762
▁finish	-4763
▁franch	-4764
▁galaxy	-4765
▁guilty	-4766
▁guitar	-4767
▁honest	-4768
▁indias	-4769
▁inject	-4770
▁lawyer	-4771
▁liquid	-4772
▁mexico	-4773
▁miller	-4774
▁mining	-4775
▁mutual	-4776
▁offers	-4777
▁pieces	-4778
▁sample	-4779
▁severe	-4780
▁shares	-4781
▁stocks	-4782
▁syllab	-4783
▁themes	-4784
▁theore	-4785
▁compuls	-4786
▁discrim	-4787
▁drivers	-4788
▁eastern	-4789
▁element	-4790
▁forward	-4791
▁founded	-4792
▁learned	-4793
▁letters	-4794
▁license	-4795
▁measure	-4796
▁missing	-4797
▁mistake	-4798
▁motorcy	-4799
▁passing	-4800
▁predict	-4801
▁protein	-4802
▁sharing	-4803
▁solving	-4804
▁station	-4805
▁teenage	-4806
▁twitter	-4807
▁typical	-4808
▁uniform	-4809
▁willing	-4810
▁worried	-4811
▁zealand	-4812
repreneur	-4813
▁branches	-4814
▁canadian	-4815
▁creating	-4816
▁criminal	-4817
▁database	-4818
▁fighting	-4819
▁friendly	-4820
▁genocide	-4821
▁interact	-4822
▁invasion	-4823
▁partners	-4824
▁properly	-4825
▁semester	-4826
▁velocity	-4827
▁analytics	-4828
▁anonymous	-4829
▁beginners	-4830
▁beginning	-4831
▁computers	-4832
▁documents	-4833
▁emotional	-4834
▁feminists	-4835
▁fictional	-4836
▁hollywood	-4837
▁immediate	-4838
▁interpret	-4839
▁pakistani	-4840
▁professor	-4841
▁standards	-4842
▁contribute	-4843
▁department	-4844
▁eventually	-4845
▁graduation	-4846
▁industries	-4847
▁philosophy	-4848
▁supporters	-4849
▁celebrities	-4850
▁differently	-4851
▁established	-4852
▁maharashtra	-4853
▁photography	-4854
▁independence	-4855
▁neighborhood	-4856
▁organization	-4857
▁technologies	-4858
12	-4859
14	-4860
cr	-4861
dt	-4862
ew	-4863
ls	-4864
ni	-4865
pd	-4866
rt	-4867
alu	-4868
ami	-4869
ari	-4870
bal	-4871
bec	-4872
col	-4873
enn	-4874
gpa	-4875
jab	-4876
lab	-4877
mas	-4878
mes	-4879
mus	-4880
now	-4881
ops	-4882
ott	-4883
pat	-4884
vor	-4885
▁ak	-4886
▁ay	-4887
▁cc	-4888
▁ml	-4889
▁mp	-4890
▁xi	-4891
agar	-4892
aked	-4893
amin	-4894
arat	-4895
ccer	-4896
cket	-4897
eter	-4898
gage	-4899
gram	-4900
hent	-4901
iday	-4902
ndra	-4903
opho	-4904
rant	-4905
rees	-4906
ront	-4907
roph	-4908
uted	-4909
wise	-4910
▁anc	-4911
▁bio	-4912
▁ded	-4913
▁dna	-4914
▁era	-4915
▁esc	-4916
▁gpa	-4917
▁gur	-4918
▁ing	-4919
▁ire	-4920
▁kim	-4921
▁kur	-4922
▁lam	-4923
▁lou	-4924
▁mig	-4925
▁pig	-4926
▁rab	-4927
▁rub	-4928
▁sib	-4929
▁tai	-4930
▁tcs	-4931
▁tig	-4932
▁toy	-4933
▁uae	-4934
▁uns	-4935
▁upv	-4936
build	-4937
cules	-4938
erson	-4939
erved	-4940
grade	-4941
inals	-4942
inite	-4943
▁acqu	-4944
▁adam	-4945
▁alex	-4946
▁alph	-4947
▁arri	-4948
▁core	-4949
▁cris	-4950
▁dent	-4951
▁dick	-4952
▁diss	-4953
▁edge	-4954
▁empt	-4955
▁gard	-4956
▁kick	-4957
▁mine	-4958
▁nare	-4959
▁nazi	-4960
▁pand	-4961
▁pull	-4962
▁rupe	-4963
▁sikh	-4964
▁sort	-4965
▁swit	-4966
▁tact	-4967
▁took	-4968
▁volt	-4969
americ	-4970
ession	-4971
ocaust	-4972
urally	-4973
▁agent	-4974
▁amend	-4975
▁argum	-4976
▁aspir	-4977
▁audio	-4978
▁birds	-4979
▁brahm	-4980
▁buddh	-4981
▁canon	-4982
▁catal	-4983
▁chess	-4984
▁coast	-4985
▁creep	-4986
▁films	-4987
▁flash	-4988
▁franc	-4989
▁fraud	-4990
▁gmail	-4991
▁greek	-4992
▁helps	-4993
▁hydro	-4994
▁illeg	-4995
▁intro	-4996
▁irrit	-4997
▁javas	-4998
▁links	-4999
▁loyal	-5000
▁match	-5001
▁merch	-5002
▁plane	-5003
▁plans	-5004
▁puppy	-5005
▁regul	-5006
▁repla	-5007
▁stops	-5008
▁surve	-5009
▁syria	-5010
▁twice	-5011
▁weigh	-5012
inating	-5013
ionally	-5014
iration	-5015
▁adults	-5016
▁agency	-5017
▁behave	-5018
▁caught	-5019
▁colors	-5020
▁compla	-5021
▁decent	-5022
▁dollar	-5023
▁extent	-5024
▁fantas	-5025
▁finger	-5026
▁formal	-5027
▁former	-5028
▁fought	-5029
▁golden	-5030
▁habits	-5031
▁levels	-5032
▁marine	-5033
▁orange	-5034
▁poison	-5035
▁racism	-5036
▁rating	-5037
▁satisf	-5038
▁scored	-5039
▁skinny	-5040
▁soccer	-5041
▁societ	-5042
▁sociop	-5043
▁starts	-5044
▁thinks	-5045
▁valley	-5046
▁victor	-5047
▁winter	-5048
▁yellow	-5049
cription	-5050
inations	-5051
izations	-5052
▁attacks	-5053
▁authent	-5054
▁biotech	-5055
▁bipolar	-5056
▁breakup	-5057
▁clearly	-5058
▁concern	-5059
▁diploma	-5060
▁federal	-5061
▁further	-5062
▁germans	-5063
▁hearing	-5064
▁helping	-5065
▁illness	-5066
▁include	-5067
▁ireland	-5068
▁jackson	-5069
▁library	-5070
▁meeting	-5071
▁obvious	-5072
▁pradesh	-5073
▁primary	-5074
▁promote	-5075
▁radical	-5076
▁reduced	-5077
▁reflect	-5078
▁routine	-5079
▁secular	-5080
▁sending	-5081
▁smarter	-5082
▁tension	-5083
▁thrones	-5084
▁tickets	-5085
▁weather	-5086
▁witness	-5087
▁workers	-5088
▁worship	-5089
forcement	-5090
▁assembly	-5091
▁baseball	-5092
▁birthday	-5093
▁concepts	-5094
▁decrease	-5095
▁director	-5096
▁equality	-5097
▁humanity	-5098
▁included	-5099
▁inferior	-5100
▁memories	-5101
▁minority	-5102
▁narendra	-5103
▁ordinary	-5104
▁painting	-5105
▁patients	-5106
▁received	-5107
▁register	-5108
▁resident	-5109
▁resource	-5110
▁romantic	-5111
▁soldiers	-5112
▁struggle	-5113
▁childhood	-5114
▁diagnosed	-5115
▁diversity	-5116
▁electrons	-5117
▁embarrass	-5118
▁equipment	-5119
▁executive	-5120
▁exercises	-5121
▁holocaust	-5122
▁mechanics	-5123
▁mentioned	-5124
▁seriously	-5125
▁suffering	-5126
▁terrorism	-5127
▁therapist	-5128
▁travelers	-5129
▁bangladesh	-5130
▁increasing	-5131
▁javascript	-5132
▁politician	-5133
▁propaganda	-5134
▁properties	-5135
▁reasonable	-5136
▁resistance	-5137
▁revolution	-5138
▁strategies	-5139
▁throughout	-5140
▁competitive	-5141
▁educational	-5142
▁immediately	-5143
▁traditional	-5144
▁consequences	-5145
▁entrepreneur	-5146
▁certification	-5147
▁differentiate	-5148
70	-5149
dy	-5150
nc	-5151
tc	-5152
zz	-5153
apt	-5154
fit	-5155
gat	-5156
hum	-5157
ito	-5158
jac	-5159
oke	-5160
ora	-5161
rad	-5162
rer	-5163
thy	-5164
uts	-5165
▁99	-5166
▁ah	-5167
▁os	-5168
▁sq	-5169
▁va	-5170
▁wi	-5171
aped	-5172
arin	-5173
born	-5174
cell	-5175
cipl	-5176
greg	-5177
idal	-5178
inct	-5179
ints	-5180
isco	-5181
lict	-5182
nels	-5183
omas	-5184
omed	-5185
opal	-5186
part	-5187
pass	-5188
ttes	-5189
umps	-5190
▁alb	-5191
▁ath	-5192
▁bds	-5193
▁cel	-5194
▁dar	-5195
▁din	-5196
▁flo	-5197
▁gri	-5198
▁jun	-5199
▁moo	-5200
▁pac	-5201
▁php	-5202
▁pit	-5203
▁pow	-5204
▁rah	-5205
▁spy	-5206
▁tay	-5207
▁tea	-5208
▁vag	-5209
▁yog	-5210
ables	-5211
aches	-5212
attoo	-5213
berry	-5214
ening	-5215
ffici	-5216
field	-5217
hetic	-5218
icing	-5219
kings	-5220
ocent	-5221
paign	-5222
paper	-5223
power	-5224
ville	-5225
▁boat	-5226
▁club	-5227
▁diab	-5228
▁dict	-5229
▁dram	-5230
▁duty	-5231
▁ecom	-5232
▁figh	-5233
▁gear	-5234
▁govt	-5235
▁hous	-5236
▁icse	-5237
▁inse	-5238
▁lock	-5239
▁lots	-5240
▁loud	-5241
▁mock	-5242
▁onto	-5243
▁plot	-5244
▁seek	-5245
▁shad	-5246
▁stam	-5247
▁stem	-5248
▁subt	-5249
▁vacc	-5250
▁valu	-5251
▁wine	-5252
bridge	-5253
idency	-5254
stream	-5255
▁10000	-5256
▁adopt	-5257
▁advis	-5258
▁armed	-5259
▁atoms	-5260
▁chain	-5261
▁click	-5262
▁cloud	-5263
▁coins	-5264
▁crash	-5265
▁demon	-5266
▁dirty	-5267
▁drunk	-5268
▁dynam	-5269
▁enemy	-5270
▁faced	-5271
▁files	-5272
▁funny	-5273
▁heads	-5274
▁heshe	-5275
▁impos	-5276
▁incom	-5277
▁incor	-5278
▁inner	-5279
▁input	-5280
▁irish	-5281
▁knock	-5282
▁knows	-5283
▁legit	-5284
▁linux	-5285
▁lunch	-5286
▁lying	-5287
▁murde	-5288
▁named	-5289
▁nazis	-5290
▁paral	-5291
▁paytm	-5292
▁polar	-5293
▁putin	-5294
▁royal	-5295
▁shape	-5296
▁slave	-5297
▁taste	-5298
▁teams	-5299
▁tesla	-5300
▁tests	-5301
▁thick	-5302
▁urban	-5303
▁willi	-5304
▁ancest	-5305
▁annual	-5306
▁anyway	-5307
▁babies	-5308
▁basket	-5309
▁blacks	-5310
▁crisis	-5311
▁defend	-5312
▁digest	-5313
▁dishes	-5314
▁excess	-5315
▁explan	-5316
▁fields	-5317
▁george	-5318
▁ground	-5319
▁harass	-5320
▁hidden	-5321
▁hisher	-5322
▁jaipur	-5323
▁joseph	-5324
▁kerala	-5325
▁martin	-5326
▁naruto	-5327
▁notice	-5328
▁overse	-5329
▁physic	-5330
▁rental	-5331
▁robert	-5332
▁secure	-5333
▁signal	-5334
▁silver	-5335
▁sounds	-5336
▁spouse	-5337
▁spring	-5338
▁taiwan	-5339
▁tattoo	-5340
▁typing	-5341
▁upload	-5342
▁wallet	-5343
▁academy	-5344
▁artists	-5345
▁brought	-5346
▁cameras	-5347
▁capable	-5348
▁climate	-5349
▁complic	-5350
▁cooking	-5351
▁drawing	-5352
▁funding	-5353
▁genetic	-5354
▁journal	-5355
▁lawyers	-5356
▁michael	-5357
▁organic	-5358
▁request	-5359
▁revenue	-5360
▁stephen	-5361
▁storage	-5362
▁visible	-5363
▁wealthy	-5364
▁workout	-5365
▁younger	-5366
▁attorney	-5367
▁brothers	-5368
▁campaign	-5369
▁conflict	-5370
▁cultures	-5371
▁particle	-5372
▁response	-5373
▁scenario	-5374
▁schedule	-5375
▁settings	-5376
▁socially	-5377
▁superman	-5378
▁syllabus	-5379
▁tomorrow	-5380
▁addiction	-5381
▁affecting	-5382
▁algorithm	-5383
▁apartment	-5384
▁bachelors	-5385
▁behaviour	-5386
▁certified	-5387
▁cognitive	-5388
▁committed	-5389
▁concerned	-5390
▁decisions	-5391
▁destroyed	-5392
▁disappear	-5393
▁elections	-5394
▁entertain	-5395
▁franchise	-5396
▁increased	-5397
▁molecules	-5398
▁operating	-5399
▁operation	-5400
▁reference	-5401
▁sensitive	-5402
▁shortterm	-5403
▁solutions	-5404
▁thousands	-5405
▁cigarettes	-5406
▁employment	-5407
▁healthcare	-5408
▁impossible	-5409
▁integrated	-5410
▁percentile	-5411
▁protection	-5412
▁citizenship	-5413
▁manufacture	-5414
▁participate	-5415
▁possibility	-5416
▁reservation	-5417
▁mathematical	-5418
▁cryptocurrency	-5419
19	-5420
35	-5421
aw	-5422
fa	-5423
kn	-5424
pi	-5425
tr	-5426
aff	-5427
cet	-5428
cil	-5429
ext	-5430
iff	-5431
iny	-5432
jun	-5433
kan	-5434
lax	-5435
oll	-5436
oon	-5437
ura	-5438
▁39	-5439
▁dh	-5440
▁ee	-5441
▁hp	-5442
▁kh	-5443
▁ns	-5444
▁pd	-5445
▁ts	-5446
▁uc	-5447
cope	-5448
fare	-5449
iana	-5450
icon	-5451
idel	-5452
imal	-5453
lock	-5454
mark	-5455
odes	-5456
oint	-5457
pool	-5458
reci	-5459
roat	-5460
rupt	-5461
xide	-5462
▁apt	-5463
▁cha	-5464
▁dos	-5465
▁fan	-5466
▁fbi	-5467
▁fox	-5468
▁gal	-5469
▁gro	-5470
▁guj	-5471
▁hen	-5472
▁jet	-5473
▁lag	-5474
▁lee	-5475
▁les	-5476
▁llb	-5477
▁lun	-5478
▁lux	-5479
▁mam	-5480
▁mun	-5481
▁nag	-5482
▁nda	-5483
▁nic	-5484
▁org	-5485
▁pad	-5486
▁phr	-5487
▁pul	-5488
▁sap	-5489
▁tab	-5490
▁tip	-5491
▁tut	-5492
▁wis	-5493
adays	-5494
ading	-5495
alous	-5496
anted	-5497
atell	-5498
eness	-5499
iders	-5500
ilies	-5501
itely	-5502
kemon	-5503
ocate	-5504
ophob	-5505
orate	-5506
rolog	-5507
stain	-5508
sters	-5509
verty	-5510
▁acts	-5511
▁anno	-5512
▁bibl	-5513
▁blow	-5514
▁cens	-5515
▁cgpa	-5516
▁dial	-5517
▁ejac	-5518
▁font	-5519
▁hunt	-5520
▁idol	-5521
▁impl	-5522
▁kann	-5523
▁kong	-5524
▁lgbt	-5525
▁lift	-5526
▁lone	-5527
▁mans	-5528
▁mile	-5529
▁mort	-5530
▁orth	-5531
▁pian	-5532
▁pier	-5533
▁pray	-5534
▁scam	-5535
▁scar	-5536
▁shar	-5537
▁shes	-5538
▁ship	-5539
▁sore	-5540
▁suit	-5541
▁thin	-5542
▁tiss	-5543
▁trek	-5544
▁ugly	-5545
▁ukra	-5546
▁unem	-5547
▁wave	-5548
asthan	-5549
isters	-5550
lation	-5551
phones	-5552
rative	-5553
tering	-5554
▁adapt	-5555
▁bihar	-5556
▁bonds	-5557
▁boost	-5558
▁breed	-5559
▁broad	-5560
▁champ	-5561
▁codes	-5562
▁comic	-5563
▁cyber	-5564
▁delay	-5565
▁empty	-5566
▁evalu	-5567
▁grown	-5568
▁horse	-5569
▁lanka	-5570
▁leads	-5571
▁magaz	-5572
▁males	-5573
▁mixed	-5574
▁multi	-5575
▁parag	-5576
▁pleas	-5577
▁pride	-5578
▁remed	-5579
▁risks	-5580
▁route	-5581
▁scene	-5582
▁schiz	-5583
▁seats	-5584
▁simpl	-5585
▁sweet	-5586
▁theat	-5587
▁therm	-5588
▁toile	-5589
▁trees	-5590
▁upper	-5591
eration	-5592
raction	-5593
stances	-5594
working	-5595
yearold	-5596
▁accent	-5597
▁barack	-5598
▁bottom	-5599
▁boxing	-5600
▁bullet	-5601
▁chocol	-5602
▁closed	-5603
▁defeat	-5604
▁disney	-5605
▁effici	-5606
▁emails	-5607
▁ensure	-5608
▁equity	-5609
▁export	-5610
▁factor	-5611
▁filled	-5612
▁fluent	-5613
▁forgot	-5614
▁format	-5615
▁grades	-5616
▁harder	-5617
▁heaven	-5618
▁lowest	-5619
▁mirror	-5620
▁planes	-5621
▁posted	-5622
▁punjab	-5623
▁quotes	-5624
▁recipe	-5625
▁sacrif	-5626
▁serial	-5627
▁settle	-5628
▁signed	-5629
▁strike	-5630
▁studio	-5631
▁suffer	-5632
▁temple	-5633
▁territ	-5634
▁theres	-5635
▁thomas	-5636
▁throat	-5637
▁toront	-5638
▁trends	-5639
▁visual	-5640
▁volunt	-5641
▁womens	-5642
ications	-5643
ographic	-5644
▁aspects	-5645
▁command	-5646
▁consume	-5647
▁contest	-5648
▁context	-5649
▁dealing	-5650
▁decided	-5651
▁degrees	-5652
▁density	-5653
▁desktop	-5654
▁dislike	-5655
▁earlier	-5656
▁encoura	-5657
▁factory	-5658
▁fitness	-5659
▁fresher	-5660
▁georgia	-5661
▁graphic	-5662
▁greater	-5663
▁instrum	-5664
▁involve	-5665
▁justice	-5666
▁kingdom	-5667
▁laptops	-5668
▁manipal	-5669
▁moments	-5670
▁nursing	-5671
▁outcome	-5672
▁plastic	-5673
▁pokemon	-5674
▁poverty	-5675
▁removal	-5676
▁removed	-5677
▁reports	-5678
▁revenge	-5679
▁reverse	-5680
▁richest	-5681
▁romance	-5682
▁smaller	-5683
▁somehow	-5684
▁sustain	-5685
▁vitamin	-5686
▁wanting	-5687
▁watched	-5688
▁annoying	-5689
▁arrested	-5690
▁biblical	-5691
▁charging	-5692
▁choosing	-5693
▁contacts	-5694
▁entering	-5695
▁entirely	-5696
▁external	-5697
▁followed	-5698
▁husbands	-5699
▁ignorant	-5700
▁kashmiri	-5701
▁linkedin	-5702
▁magnetic	-5703
▁nowadays	-5704
▁obsessed	-5705
▁optional	-5706
▁organism	-5707
▁patterns	-5708
▁pharmacy	-5709
▁prepared	-5710
▁secretly	-5711
▁smallest	-5712
▁survival	-5713
▁unemploy	-5714
▁variable	-5715
▁weirdest	-5716
▁whenever	-5717
▁communist	-5718
▁container	-5719
▁criminals	-5720
▁ethnicity	-5721
▁formation	-5722
▁happiness	-5723
▁infection	-5724
▁platforms	-5725
▁practices	-5726
▁rajasthan	-5727
▁religions	-5728
▁reporting	-5729
▁wordpress	-5730
▁accounting	-5731
▁associated	-5732
▁compulsory	-5733
▁dimensions	-5734
▁expression	-5735
▁facilities	-5736
▁manchester	-5737
▁motorcycle	-5738
▁permission	-5739
▁profitable	-5740
▁supporting	-5741
▁travelling	-5742
▁vietnamese	-5743
▁communities	-5744
▁emotionally	-5745
▁distribution	-5746
▁registration	-5747
▁circumstances	-5748
bb	-5749
nu	-5750
tu	-5751
va	-5752
ano	-5753
car	-5754
edi	-5755
era	-5756
fra	-5757
imb	-5758
ius	-5759
ked	-5760
och	-5761
oic	-5762
ost	-5763
pel	-5764
rog	-5765
sts	-5766
ubs	-5767
ugu	-5768
wed	-5769
▁34	-5770
▁52	-5771
▁75	-5772
▁bf	-5773
▁gd	-5774
▁gy	-5775
▁ji	-5776
▁ni	-5777
▁ub	-5778
abul	-5779
ache	-5780
anta	-5781
cher	-5782
cule	-5783
dium	-5784
elts	-5785
flix	-5786
illy	-5787
inte	-5788
izes	-5789
lers	-5790
made	-5791
olen	-5792
oler	-5793
olve	-5794
redi	-5795
resp	-5796
rian	-5797
rors	-5798
sial	-5799
sqrt	-5800
tles	-5801
ulum	-5802
uran	-5803
▁150	-5804
▁arr	-5805
▁awk	-5806
▁bba	-5807
▁bob	-5808
▁bun	-5809
▁enh	-5810
▁gig	-5811
▁ies	-5812
▁jam	-5813
▁kil	-5814
▁lap	-5815
▁loo	-5816
▁nba	-5817
▁nyc	-5818
▁oce	-5819
▁pic	-5820
▁pim	-5821
▁rod	-5822
▁shy	-5823
▁sne	-5824
▁spl	-5825
▁tas	-5826
▁ton	-5827
▁usd	-5828
▁vib	-5829
angle	-5830
antly	-5831
ipped	-5832
iving	-5833
merce	-5834
orter	-5835
riger	-5836
uries	-5837
▁2015	-5838
▁5000	-5839
▁abol	-5840
▁ange	-5841
▁auto	-5842
▁boot	-5843
▁chic	-5844
▁edit	-5845
▁firm	-5846
▁flex	-5847
▁fuel	-5848
▁harv	-5849
▁hong	-5850
▁hung	-5851
▁info	-5852
▁isol	-5853
▁jain	-5854
▁joke	-5855
▁knew	-5856
▁lens	-5857
▁meal	-5858
▁pets	-5859
▁phen	-5860
▁pill	-5861
▁pron	-5862
▁rely	-5863
▁reve	-5864
▁rome	-5865
▁sale	-5866
▁scan	-5867
▁sexy	-5868
▁sper	-5869
▁summ	-5870
▁thor	-5871
▁tone	-5872
▁tort	-5873
▁tree	-5874
▁vast	-5875
▁wing	-5876
▁zone	-5877
enders	-5878
igious	-5879
inking	-5880
ipping	-5881
nology	-5882
omatic	-5883
opathy	-5884
ounder	-5885
▁ahmed	-5886
▁alien	-5887
▁allah	-5888
▁allen	-5889
▁angel	-5890
▁antis	-5891
▁arabs	-5892
▁aside	-5893
▁brave	-5894
▁cryst	-5895
▁cured	-5896
▁debit	-5897
▁domin	-5898
▁emper	-5899
▁error	-5900
▁estim	-5901
▁frank	-5902
▁fruit	-5903
▁genet	-5904
▁giant	-5905
▁goals	-5906
▁holes	-5907
▁ielts	-5908
▁jokes	-5909
▁laugh	-5910
▁manga	-5911
▁march	-5912
▁merit	-5913
▁moves	-5914
▁notes	-5915
▁overw	-5916
▁penal	-5917
▁persu	-5918
▁peter	-5919
▁pills	-5920
▁quite	-5921
▁ratio	-5922
▁recon	-5923
▁roles	-5924
▁sheet	-5925
▁shown	-5926
▁smoke	-5927
▁spect	-5928
▁spots	-5929
▁surge	-5930
▁teens	-5931
▁theme	-5932
abulary	-5933
amental	-5934
cipline	-5935
ibility	-5936
istical	-5937
mediate	-5938
rencies	-5939
utation	-5940
versial	-5941
xuality	-5942
▁advise	-5943
▁batman	-5944
▁boring	-5945
▁butter	-5946
▁chinas	-5947
▁closer	-5948
▁compos	-5949
▁ending	-5950
▁exists	-5951
▁facult	-5952
▁fruits	-5953
▁funded	-5954
▁hiring	-5955
▁hurric	-5956
▁incest	-5957
▁linear	-5958
▁metall	-5959
▁neural	-5960
▁nutrit	-5961
▁overth	-5962
▁permit	-5963
▁placed	-5964
▁pretty	-5965
▁quebec	-5966
▁refuse	-5967
▁repair	-5968
▁retire	-5969
▁robots	-5970
▁rupees	-5971
▁satell	-5972
▁scores	-5973
▁sodium	-5974
▁stalin	-5975
▁stolen	-5976
▁tracks	-5977
▁triple	-5978
▁unable	-5979
▁unfair	-5980
▁victim	-5981
▁viewed	-5982
▁weapon	-5983
▁actions	-5984
▁amounts	-5985
▁awkward	-5986
▁cheated	-5987
▁circuit	-5988
▁covered	-5989
▁deliber	-5990
▁deposit	-5991
▁display	-5992
▁editing	-5993
▁episode	-5994
▁forgive	-5995
▁holding	-5996
▁initial	-5997
▁intoler	-5998
▁israeli	-5999
▁jealous	-6000
▁leading	-6001
▁longest	-6002
▁matches	-6003
▁netflix	-6004
▁opposed	-6005
▁parties	-6006
▁privacy	-6007
▁proport	-6008
▁railway	-6009
▁savings	-6010
▁silicon	-6011
▁slavery	-6012
▁speaker	-6013
▁strange	-6014
▁toronto	-6015
▁tuition	-6016
▁village	-6017
▁violent	-6018
▁voltage	-6019
▁waiting	-6020
▁warfare	-6021
▁weekend	-6022
▁withdra	-6023
istically	-6024
▁aptitude	-6025
▁cheapest	-6026
▁cleaning	-6027
▁committe	-6028
▁december	-6029
▁defining	-6030
▁discover	-6031
▁families	-6032
▁graphics	-6033
▁infinite	-6034
▁integral	-6035
▁lifetime	-6036
▁managers	-6037
▁millions	-6038
▁networks	-6039
▁nitrogen	-6040
▁official	-6041
▁refriger	-6042
▁relevant	-6043
▁requires	-6044
▁robotics	-6045
▁separate	-6046
▁southern	-6047
▁swimming	-6048
▁vehicles	-6049
▁weekends	-6050
▁whatever	-6051
▁amendment	-6052
▁authority	-6053
▁basically	-6054
▁cambridge	-6055
▁christmas	-6056
▁classical	-6057
▁completed	-6058
▁compounds	-6059
▁converted	-6060
▁customers	-6061
▁daughters	-6062
▁ecommerce	-6063
▁frequency	-6064
▁geography	-6065
▁hospitals	-6066
▁household	-6067
▁newspaper	-6068
▁prospects	-6069
▁providing	-6070
▁qualified	-6071
▁qualities	-6072
▁responsib	-6073
▁spiritual	-6074
▁beneficial	-6075
▁calculated	-6076
▁consultant	-6077
▁efficiency	-6078
▁experiment	-6079
▁foreigners	-6080
▁leadership	-6081
▁meditation	-6082
▁neutrality	-6083
▁programmer	-6084
▁punishment	-6085
▁registered	-6086
▁treatments	-6087
▁vocabulary	-6088
▁explanation	-6089
▁fundamental	-6090
▁improvement	-6091
▁indonesians	-6092
▁nationalism	-6093
▁permanently	-6094
▁suggestions	-6095
▁transaction	-6096
▁translation	-6097
▁manufactured	-6098
▁organisation	-6099
▁concentration	-6100
▁controversial	-6101
▁neighborhoods	-6102
24	-6103
55	-6104
80	-6105
ax	-6106
nb	-6107
pm	-6108
py	-6109
ui	-6110
wl	-6111
aks	-6112
boy	-6113
ctr	-6114
hit	-6115
ifi	-6116
inc	-6117
kal	-6118
kar	-6119
kin	-6120
mun	-6121
net	-6122
pan	-6123
riv	-6124
roc	-6125
see	-6126
sey	-6127
tic	-6128
uct	-6129
ysi	-6130
▁az	-6131
▁cd	-6132
▁fi	-6133
▁gh	-6134
▁kv	-6135
▁rh	-6136
▁vp	-6137
▁yr	-6138
ador	-6139
aker	-6140
anes	-6141
asty	-6142
berg	-6143
bour	-6144
cend	-6145
cium	-6146
girl	-6147
gium	-6148
gust	-6149
igma	-6150
iped	-6151
lets	-6152
lims	-6153
ocad	-6154
ogen	-6155
onda	-6156
onia	-6157
osys	-6158
oted	-6159
othe	-6160
real	-6161
requ	-6162
rish	-6163
ston	-6164
ture	-6165
untu	-6166
wear	-6167
wide	-6168
wing	-6169
yond	-6170
▁911	-6171
▁ans	-6172
▁bic	-6173
▁bom	-6174
▁bpd	-6175
▁bru	-6176
▁bub	-6177
▁ceo	-6178
▁cet	-6179
▁dio	-6180
▁dum	-6181
▁ela	-6182
▁gon	-6183
▁inn	-6184
▁ipl	-6185
▁kar	-6186
▁koh	-6187
▁lip	-6188
▁lyr	-6189
▁nra	-6190
▁ocd	-6191
▁pin	-6192
▁pod	-6193
▁poo	-6194
▁raw	-6195
▁ren	-6196
▁saw	-6197
▁sql	-6198
▁tap	-6199
▁tow	-6200
▁tun	-6201
▁wik	-6202
aires	-6203
bling	-6204
chron	-6205
gment	-6206
herry	-6207
inent	-6208
iture	-6209
llion	-6210
llore	-6211
mates	-6212
olved	-6213
ounce	-6214
ourse	-6215
oxide	-6216
ppers	-6217
using	-6218
ystem	-6219
▁acne	-6220
▁alth	-6221
▁anat	-6222
▁bear	-6223
▁boom	-6224
▁buck	-6225
▁cake	-6226
▁cous	-6227
▁cycl	-6228
▁door	-6229
▁dump	-6230
▁exit	-6231
▁farm	-6232
▁furn	-6233
▁gall	-6234
▁grab	-6235
▁guar	-6236
▁horn	-6237
▁icon	-6238
▁impe	-6239
▁indu	-6240
▁ipad	-6241
▁jeff	-6242
▁lets	-6243
▁logo	-6244
▁mega	-6245
▁nasa	-6246
▁nerv	-6247
▁obam	-6248
▁pond	-6249
▁proc	-6250
▁ride	-6251
▁salt	-6252
▁sept	-6253
▁ster	-6254
▁task	-6255
▁tata	-6256
▁tier	-6257
▁unhe	-6258
▁vary	-6259
▁vice	-6260
▁warm	-6261
▁wash	-6262
ansion	-6263
arding	-6264
arians	-6265
ffered	-6266
galore	-6267
hereum	-6268
ometer	-6269
weight	-6270
▁ahead	-6271
▁anger	-6272
▁april	-6273
▁armen	-6274
▁armor	-6275
▁award	-6276
▁batch	-6277
▁bored	-6278
▁cabin	-6279
▁chand	-6280
▁concl	-6281
▁curve	-6282
▁dates	-6283
▁divor	-6284
▁elder	-6285
▁excel	-6286
▁flood	-6287
▁hates	-6288
▁index	-6289
▁jeans	-6290
▁knife	-6291
▁lakhs	-6292
▁laser	-6293
▁lived	-6294
▁louis	-6295
▁monop	-6296
▁neuro	-6297
▁orbit	-6298
▁physi	-6299
▁piano	-6300
▁plays	-6301
▁prest	-6302
▁quran	-6303
▁redmi	-6304
▁river	-6305
▁sauce	-6306
▁saved	-6307
▁scand	-6308
▁shift	-6309
▁shirt	-6310
▁smile	-6311
▁staff	-6312
▁steal	-6313
▁steam	-6314
▁sweat	-6315
▁talks	-6316
▁trend	-6317
▁uncom	-6318
▁uncon	-6319
▁usage	-6320
▁vegas	-6321
▁walls	-6322
▁wavel	-6323
▁wives	-6324
itative	-6325
ometric	-6326
ounding	-6327
selling	-6328
writing	-6329
zerland	-6330
▁ambass	-6331
▁autism	-6332
▁beauty	-6333
▁beings	-6334
▁beyond	-6335
▁biomed	-6336
▁bother	-6337
▁bought	-6338
▁brainw	-6339
▁bridge	-6340
▁casual	-6341
▁chrome	-6342
▁circle	-6343
▁circul	-6344
▁concer	-6345
▁creepy	-6346
▁debate	-6347
▁dental	-6348
▁deport	-6349
▁desert	-6350
▁diabet	-6351
▁diesel	-6352
▁driven	-6353
▁ethics	-6354
▁facing	-6355
▁garden	-6356
▁hating	-6357
▁justin	-6358
▁kidney	-6359
▁larger	-6360
▁loving	-6361
▁lyrics	-6362
▁marath	-6363
▁minute	-6364
▁models	-6365
▁output	-6366
▁poland	-6367
▁proven	-6368
▁reform	-6369
▁relate	-6370
▁remote	-6371
▁repeat	-6372
▁retain	-6373
▁shadow	-6374
▁shower	-6375
▁simult	-6376
▁stored	-6377
▁tablet	-6378
▁talked	-6379
▁ubuntu	-6380
▁volcan	-6381
▁voters	-6382
▁voting	-6383
▁whites	-6384
▁womans	-6385
american	-6386
ensation	-6387
ologists	-6388
▁analyst	-6389
▁belgium	-6390
▁calcium	-6391
▁calling	-6392
▁carrier	-6393
▁causing	-6394
▁combine	-6395
▁convent	-6396
▁corresp	-6397
▁damaged	-6398
▁defence	-6399
▁deserve	-6400
▁diamond	-6401
▁dioxide	-6402
▁disgust	-6403
▁disturb	-6404
▁efforts	-6405
▁electro	-6406
▁ethical	-6407
▁falling	-6408
▁figures	-6409
▁finally	-6410
▁flowers	-6411
▁glasses	-6412
▁grammar	-6413
▁gujarat	-6414
▁hardest	-6415
▁hurting	-6416
▁impress	-6417
▁infosys	-6418
▁ingredi	-6419
▁journey	-6420
▁keeping	-6421
▁landing	-6422
▁legends	-6423
▁lessons	-6424
▁letting	-6425
▁located	-6426
▁matters	-6427
▁monthly	-6428
▁nervous	-6429
▁overall	-6430
▁painful	-6431
▁paralle	-6432
▁patient	-6433
▁ranking	-6434
▁richard	-6435
▁scoring	-6436
▁selfish	-6437
▁staying	-6438
▁vellore	-6439
▁welcome	-6440
structure	-6441
▁addicted	-6442
▁although	-6443
▁aluminum	-6444
▁attached	-6445
▁bachelor	-6446
▁beginner	-6447
▁channels	-6448
▁cheating	-6449
▁compound	-6450
▁consumer	-6451
▁countrys	-6452
▁designed	-6453
▁disaster	-6454
▁discount	-6455
▁educated	-6456
▁ethereum	-6457
▁hardware	-6458
▁hypocris	-6459
▁interior	-6460
▁molecule	-6461
▁overseas	-6462
▁refugees	-6463
▁restrict	-6464
▁sciences	-6465
▁sections	-6466
▁shopping	-6467
▁stanford	-6468
▁suffered	-6469
▁tourists	-6470
▁vacation	-6471
ologically	-6472
▁advertise	-6473
▁associate	-6474
▁authentic	-6475
▁automatic	-6476
▁champions	-6477
▁chocolate	-6478
▁component	-6479
▁confident	-6480
▁conscious	-6481
▁construct	-6482
▁discharge	-6483
▁expansion	-6484
▁francisco	-6485
▁illegally	-6486
▁improving	-6487
▁intellect	-6488
▁interests	-6489
▁invention	-6490
▁involving	-6491
▁mangalore	-6492
▁naturally	-6493
▁northeast	-6494
▁objective	-6495
▁pollution	-6496
▁preferred	-6497
▁processes	-6498
▁processor	-6499
▁rejection	-6500
▁satisfied	-6501
▁searching	-6502
▁socialist	-6503
▁societies	-6504
▁technique	-6505
▁basketball	-6506
▁biomedical	-6507
▁consulting	-6508
▁continuous	-6509
▁determined	-6510
▁impression	-6511
▁instrument	-6512
▁pakistanis	-6513
▁practicing	-6514
▁proportion	-6515
▁recognized	-6516
▁structures	-6517
▁sufficient	-6518
▁vegetarian	-6519
▁wavelength	-6520
▁comfortable	-6521
▁competition	-6522
▁corporation	-6523
▁downloading	-6524
▁financially	-6525
▁influential	-6526
▁integration	-6527
▁narcissists	-6528
▁politically	-6529
▁recognition	-6530
▁requirement	-6531
▁restaurants	-6532
▁switzerland	-6533
▁acceleration	-6534
▁accidentally	-6535
▁agricultural	-6536
▁evolutionary	-6537
▁intermediate	-6538
▁masturbation	-6539
▁palestinians	-6540
▁presentation	-6541
▁successfully	-6542
▁biotechnology	-6543
▁organizations	-6544
▁infrastructure	-6545
22	-6546
32	-6547
40	-6548
dr	-6549
fc	-6550
hd	-6551
ml	-6552
oe	-6553
rp	-6554
sp	-6555
yn	-6556
aps	-6557
bay	-6558
bur	-6559
ded	-6560
iab	-6561
iju	-6562
izz	-6563
jan	-6564
min	-6565
nis	-6566
oly	-6567
ovo	-6568
pse	-6569
rid	-6570
sin	-6571
sty	-6572
tte	-6573
ued	-6574
vis	-6575
▁28	-6576
▁32	-6577
▁33	-6578
▁44	-6579
▁dj	-6580
▁dm	-6581
▁ls	-6582
▁mm	-6583
▁nc	-6584
▁ou	-6585
▁sr	-6586
aism	-6587
aled	-6588
aper	-6589
atar	-6590
boot	-6591
elle	-6592
ests	-6593
fish	-6594
gaon	-6595
iler	-6596
kart	-6597
mart	-6598
mble	-6599
omin	-6600
oral	-6601
orph	-6602
plus	-6603
rons	-6604
sell	-6605
ttar	-6606
ucks	-6607
vind	-6608
▁alt	-6609
▁aug	-6610
▁bah	-6611
▁beg	-6612
▁cum	-6613
▁dil	-6614
▁egg	-6615
▁fol	-6616
▁gor	-6617
▁han	-6618
▁hem	-6619
▁hiv	-6620
▁iot	-6621
▁ivy	-6622
▁jan	-6623
▁jon	-6624
▁jup	-6625
▁kal	-6626
▁mol	-6627
▁mph	-6628
▁nik	-6629
▁osc	-6630
▁rig	-6631
▁roi	-6632
▁ros	-6633
▁rum	-6634
▁sab	-6635
▁sid	-6636
▁ske	-6637
▁srm	-6638
▁sue	-6639
▁sul	-6640
▁tum	-6641
▁tyr	-6642
▁usc	-6643
▁vom	-6644
▁vul	-6645
ailed	-6646
althy	-6647
based	-6648
bered	-6649
class	-6650
esome	-6651
front	-6652
gebra	-6653
house	-6654
ieval	-6655
ights	-6656
iliar	-6657
ipend	-6658
itles	-6659
known	-6660
obile	-6661
ograp	-6662
organ	-6663
ormal	-6664
othet	-6665
poses	-6666
prise	-6667
rious	-6668
state	-6669
uding	-6670
uther	-6671
▁adhd	-6672
▁airb	-6673
▁airt	-6674
▁axis	-6675
▁bare	-6676
▁bath	-6677
▁bhag	-6678
▁bhar	-6679
▁bind	-6680
▁bird	-6681
▁bone	-6682
▁chap	-6683
▁clar	-6684
▁clay	-6685
▁coal	-6686
▁cosm	-6687
▁cube	-6688
▁ears	-6689
▁eggs	-6690
▁elon	-6691
▁fing	-6692
▁golf	-6693
▁gulf	-6694
▁held	-6695
▁hits	-6696
▁hons	-6697
▁jedi	-6698
▁june	-6699
▁kent	-6700
▁kiit	-6701
▁lady	-6702
▁laid	-6703
▁mary	-6704
▁mask	-6705
▁mete	-6706
▁mild	-6707
▁mont	-6708
▁musk	-6709
▁nift	-6710
▁none	-6711
▁nons	-6712
▁pend	-6713
▁pink	-6714
▁plas	-6715
▁poss	-6716
▁prec	-6717
▁prey	-6718
▁roll	-6719
▁ryan	-6720
▁sach	-6721
▁sans	-6722
▁shit	-6723
▁shiv	-6724
▁sony	-6725
▁spac	-6726
▁unde	-6727
▁unst	-6728
▁unus	-6729
▁vish	-6730
▁warn	-6731
▁wide	-6732
active	-6733
angest	-6734
father	-6735
icious	-6736
ijuana	-6737
parent	-6738
rishna	-6739
ushing	-6740
valent	-6741
▁absor	-6742
▁alter	-6743
▁antim	-6744
▁argue	-6745
▁assum	-6746
▁audit	-6747
▁beard	-6748
▁bench	-6749
▁bills	-6750
▁charl	-6751
▁clubs	-6752
▁colum	-6753
▁coord	-6754
▁drawn	-6755
▁ethan	-6756
▁expla	-6757
▁fever	-6758
▁flame	-6759
▁gates	-6760
▁genre	-6761
▁guess	-6762
▁hacks	-6763
▁hired	-6764
▁honda	-6765
▁jewel	-6766
▁jones	-6767
▁juice	-6768
▁kings	-6769
▁lingu	-6770
▁login	-6771
▁lungs	-6772
▁maybe	-6773
▁metro	-6774
▁miles	-6775
▁minds	-6776
▁moroc	-6777
▁moved	-6778
▁oblig	-6779
▁ocean	-6780
▁optim	-6781
▁pages	-6782
▁patna	-6783
▁penet	-6784
▁races	-6785
▁radar	-6786
▁rahul	-6787
▁revol	-6788
▁ridic	-6789
▁rooms	-6790
▁scary	-6791
▁screw	-6792
▁silly	-6793
▁singh	-6794
▁slept	-6795
▁spart	-6796
▁spent	-6797
▁sperm	-6798
▁sport	-6799
▁sunni	-6800
▁swift	-6801
▁swing	-6802
▁texts	-6803
▁titan	-6804
▁traum	-6805
▁turns	-6806
▁tutor	-6807
▁upset	-6808
▁uttar	-6809
▁warri	-6810
▁yours	-6811
itarian	-6812
iveness	-6813
respect	-6814
ropical	-6815
▁addict	-6816
▁adding	-6817
▁antide	-6818
▁appeal	-6819
▁atmosp	-6820
▁atomic	-6821
▁attach	-6822
▁backup	-6823
▁bhopal	-6824
▁bitsat	-6825
▁bottle	-6826
▁breaks	-6827
▁bright	-6828
▁button	-6829
▁caring	-6830
▁columb	-6831
▁comedk	-6832
▁convin	-6833
▁correl	-6834
▁deploy	-6835
▁detail	-6836
▁engage	-6837
▁excell	-6838
▁forced	-6839
▁forest	-6840
▁greece	-6841
▁greeks	-6842
▁hadoop	-6843
▁hardly	-6844
▁highly	-6845
▁hunger	-6846
▁intent	-6847
▁joined	-6848
▁ladies	-6849
▁limits	-6850
▁looked	-6851
▁magnet	-6852
▁margin	-6853
▁masses	-6854
▁orgasm	-6855
▁orthod	-6856
▁pounds	-6857
▁quoran	-6858
▁rifles	-6859
▁slaves	-6860
▁slowly	-6861
▁smooth	-6862
▁stable	-6863
▁subsid	-6864
▁talent	-6865
▁taller	-6866
▁tamils	-6867
▁taylor	-6868
▁telugu	-6869
▁thesis	-6870
▁toilet	-6871
▁verify	-6872
▁wholes	-6873
ferences	-6874
interest	-6875
▁abolish	-6876
▁adopted	-6877
▁algebra	-6878
▁appreci	-6879
▁awesome	-6880
▁battles	-6881
▁becomes	-6882
▁claimed	-6883
▁compass	-6884
▁couples	-6885
▁decades	-6886
▁defense	-6887
▁deliver	-6888
▁dentist	-6889
▁dresses	-6890
▁dropped	-6891
▁enhance	-6892
▁failing	-6893
▁fighter	-6894
▁focused	-6895
▁gaining	-6896
▁gurgaon	-6897
▁hanging	-6898
▁herself	-6899
▁hostels	-6900
▁hunting	-6901
▁interse	-6902
▁judaism	-6903
▁kitchen	-6904
▁leather	-6905
▁macbook	-6906
▁mission	-6907
▁muscles	-6908
▁nucleus	-6909
▁offline	-6910
▁passive	-6911
▁planets	-6912
▁pretend	-6913
▁proceed	-6914
▁reached	-6915
▁restore	-6916
▁seasons	-6917
▁secured	-6918
▁singing	-6919
▁stipend	-6920
▁studied	-6921
▁summary	-6922
▁supreme	-6923
▁tactics	-6924
▁totally	-6925
▁volcano	-6926
▁walking	-6927
▁warming	-6928
▁wasting	-6929
▁achieved	-6930
▁agencies	-6931
▁americas	-6932
▁anywhere	-6933
▁approval	-6934
▁bringing	-6935
▁checking	-6936
▁collapse	-6937
▁colonial	-6938
▁confused	-6939
▁contains	-6940
▁critical	-6941
▁damaging	-6942
▁delivery	-6943
▁facility	-6944
▁familiar	-6945
▁flipkart	-6946
▁friction	-6947
▁hypocrit	-6948
▁hypothet	-6949
▁investor	-6950
▁medieval	-6951
▁merchant	-6952
▁mistakes	-6953
▁moderate	-6954
▁morality	-6955
▁northern	-6956
▁offended	-6957
▁overwhel	-6958
▁periodic	-6959
▁phenomen	-6960
▁purposes	-6961
▁regional	-6962
▁shoulder	-6963
▁shutdown	-6964
▁spending	-6965
▁stranger	-6966
▁suicidal	-6967
▁survived	-6968
▁transmit	-6969
▁valuable	-6970
▁agreement	-6971
▁ahmedabad	-6972
▁alcoholic	-6973
▁answering	-6974
▁arguments	-6975
▁astronaut	-6976
▁breathing	-6977
▁canadians	-6978
▁celebrate	-6979
▁challenge	-6980
▁committee	-6981
▁copyright	-6982
▁criticism	-6983
▁exclusive	-6984
▁extension	-6985
▁foreigner	-6986
▁generator	-6987
▁hypocrisy	-6988
▁investors	-6989
▁justified	-6990
▁listening	-6991
▁mandatory	-6992
▁marijuana	-6993
▁messenger	-6994
▁motivated	-6995
▁offensive	-6996
▁otherwise	-6997
▁overnight	-6998
▁positions	-6999
▁radiation	-7000
▁reasoning	-7001
▁regularly	-7002
▁sacrifice	-7003
▁satellite	-7004
▁separated	-7005
▁simultane	-7006
▁somewhere	-7007
▁strangest	-7008
▁strongest	-7009
▁subtitles	-7010
▁territory	-7011
▁unhealthy	-7012
▁worldwide	-7013
▁automobile	-7014
▁candidates	-7015
▁correspond	-7016
▁discipline	-7017
▁institutes	-7018
▁mainstream	-7019
▁masturbate	-7020
▁networking	-7021
▁preference	-7022
▁presidency	-7023
▁presidents	-7024
▁principles	-7025
▁professors	-7026
▁situations	-7027
▁transcript	-7028
▁westerners	-7029
▁complicated	-7030
▁connections	-7031
▁consumption	-7032
▁counselling	-7033
▁destination	-7034
▁governments	-7035
▁implemented	-7036
▁individuals	-7037
▁internships	-7038
▁investments	-7039
▁limitations	-7040
▁recruitment	-7041
▁consistently	-7042
▁differential	-7043
▁difficulties	-7044
▁narcissistic	-7045
▁restrictions	-7046
▁similarities	-7047
▁homosexuality	-7048
▁qualification	-7049
47	-7050
75	-7051
81	-7052
99	-7053
aj	-7054
gc	-7055
iy	-7056
200	-7057
ago	-7058
aji	-7059
ara	-7060
arr	-7061
atu	-7062
cat	-7063
dem	-7064
die	-7065
een	-7066
eer	-7067
fla	-7068
fly	-7069
fol	-7070
gue	-7071
ita	-7072
itz	-7073
leg	-7074
lla	-7075
los	-7076
mad	-7077
mot	-7078
obe	-7079
orp	-7080
rah	-7081
sex	-7082
she	-7083
sql	-7084
uba	-7085
urs	-7086
van	-7087
vas	-7088
ynt	-7089
▁29	-7090
▁31	-7091
▁48	-7092
▁51	-7093
▁cm	-7094
▁ct	-7095
▁cv	-7096
▁fb	-7097
▁hk	-7098
▁hu	-7099
▁km	-7100
▁md	-7101
▁mf	-7102
▁ol	-7103
▁ov	-7104
▁oz	-7105
▁vo	-7106
0000	-7107
2018	-7108
abil	-7109
acks	-7110
acle	-7111
agon	-7112
aire	-7113
airs	-7114
anas	-7115
arts	-7116
asse	-7117
aton	-7118
bian	-7119
burn	-7120
flow	-7121
ilit	-7122
ipro	-7123
izab	-7124
kers	-7125
leep	-7126
look	-7127
miss	-7128
opia	-7129
orry	-7130
qual	-7131
rete	-7132
rill	-7133
roll	-7134
seud	-7135
uary	-7136
uber	-7137
umes	-7138
what	-7139
ycle	-7140
ymes	-7141
▁193	-7142
▁aad	-7143
▁aid	-7144
▁aws	-7145
▁bid	-7146
▁bos	-7147
▁bts	-7148
▁cad	-7149
▁cho	-7150
▁cia	-7151
▁cis	-7152
▁cpu	-7153
▁cyl	-7154
▁dal	-7155
▁dye	-7156
▁eee	-7157
▁enz	-7158
▁fer	-7159
▁fid	-7160
▁gau	-7161
▁glo	-7162
▁goa	-7163
▁hay	-7164
▁hip	-7165
▁inr	-7166
▁ion	-7167
▁jab	-7168
▁jin	-7169
▁joe	-7170
▁jul	-7171
▁kan	-7172
▁ket	-7173
▁lac	-7174
▁lbs	-7175
▁len	-7176
▁lib	-7177
▁mao	-7178
▁mob	-7179
▁nad	-7180
▁nfl	-7181
▁nom	-7182
▁pir	-7183
▁ray	-7184
▁roy	-7185
▁sed	-7186
▁ssb	-7187
▁sty	-7188
▁tir	-7189
▁und	-7190
▁van	-7191
▁wet	-7192
▁wid	-7193
▁wil	-7194
abhar	-7195
achal	-7196
ament	-7197
anged	-7198
archy	-7199
backs	-7200
break	-7201
cedes	-7202
eared	-7203
eline	-7204
erman	-7205
erves	-7206
folio	-7207
gical	-7208
hibit	-7209
human	-7210
ingly	-7211
inter	-7212
lding	-7213
level	-7214
lings	-7215
lobin	-7216
marks	-7217
otive	-7218
quito	-7219
rable	-7220
rence	-7221
rieve	-7222
ulous	-7223
wares	-7224
water	-7225
▁1990	-7226
▁alab	-7227
▁bars	-7228
▁bass	-7229
▁bcom	-7230
▁beam	-7231
▁bell	-7232
▁bise	-7233
▁buff	-7234
▁cham	-7235
▁cops	-7236
▁corn	-7237
▁coup	-7238
▁cram	-7239
▁crow	-7240
▁dani	-7241
▁ebay	-7242
▁elev	-7243
▁elim	-7244
▁emer	-7245
▁erad	-7246
▁fate	-7247
▁fert	-7248
▁fest	-7249
▁fool	-7250
▁ford	-7251
▁fulf	-7252
▁gene	-7253
▁hook	-7254
▁horm	-7255
▁hybr	-7256
▁hype	-7257
▁hypn	-7258
▁ibps	-7259
▁item	-7260
▁jong	-7261
▁jord	-7262
▁kath	-7263
▁kota	-7264
▁lean	-7265
▁loot	-7266
▁luke	-7267
▁lump	-7268
▁lung	-7269
▁marg	-7270
▁marx	-7271
▁melt	-7272
▁merc	-7273
▁moms	-7274
▁mood	-7275
▁morm	-7276
▁mugh	-7277
▁nadu	-7278
▁neck	-7279
▁numb	-7280
▁odds	-7281
▁panc	-7282
▁peak	-7283
▁perf	-7284
▁pipe	-7285
▁pool	-7286
▁pork	-7287
▁pose	-7288
▁roof	-7289
▁rose	-7290
▁shel	-7291
▁sket	-7292
▁slee	-7293
▁slim	-7294
▁soil	-7295
▁soul	-7296
▁surr	-7297
▁tape	-7298
▁tong	-7299
▁turb	-7300
▁unex	-7301
▁util	-7302
▁vend	-7303
▁ward	-7304
▁whis	-7305
▁yoga	-7306
▁zomb	-7307
assium	-7308
bourne	-7309
cience	-7310
icated	-7311
icians	-7312
ington	-7313
ivated	-7314
market	-7315
master	-7316
mother	-7317
necess	-7318
odynam	-7319
ophren	-7320
orders	-7321
ressor	-7322
ronics	-7323
usions	-7324
worthy	-7325
▁aband	-7326
▁adobe	-7327
▁alban	-7328
▁alpha	-7329
▁antic	-7330
▁atroc	-7331
▁beach	-7332
▁belly	-7333
▁berke	-7334
▁bikes	-7335
▁bones	-7336
▁bound	-7337
▁bribe	-7338
▁brief	-7339
▁cardi	-7340
▁cheat	-7341
▁chord	-7342
▁conqu	-7343
▁costs	-7344
▁cowor	-7345
▁craig	-7346
▁devil	-7347
▁draft	-7348
▁drama	-7349
▁dutch	-7350
▁eaten	-7351
▁embed	-7352
▁emerg	-7353
▁flour	-7354
▁forex	-7355
▁frust	-7356
▁gifts	-7357
▁guard	-7358
▁hated	-7359
▁henry	-7360
▁highs	-7361
▁hyper	-7362
▁icici	-7363
▁ignou	-7364
▁insec	-7365
▁isare	-7366
▁joint	-7367
▁kenya	-7368
▁layer	-7369
▁legis	-7370
▁liver	-7371
▁manif	-7372
▁meals	-7373
▁metab	-7374
▁newly	-7375
▁niger	-7376
▁noida	-7377
▁numer	-7378
▁paris	-7379
▁petro	-7380
▁plate	-7381
▁prize	-7382
▁pseud	-7383
▁quiet	-7384
▁raped	-7385
▁relax	-7386
▁rough	-7387
▁rural	-7388
▁seeds	-7389
▁sells	-7390
▁setup	-7391
▁shell	-7392
▁sides	-7393
▁smith	-7394
▁snake	-7395
▁split	-7396
▁stere	-7397
▁steve	-7398
▁stret	-7399
▁stuck	-7400
▁teles	-7401
▁thank	-7402
▁tiger	-7403
▁trick	-7404
▁unlim	-7405
▁vegan	-7406
▁vocal	-7407
▁wheel	-7408
▁yeast	-7409
agnetic	-7410
essions	-7411
igation	-7412
inerary	-7413
oglobin	-7414
otherap	-7415
ractive	-7416
rection	-7417
▁201718	-7418
▁accuse	-7419
▁airbnb	-7420
▁apolog	-7421
▁argent	-7422
▁berlin	-7423
▁binary	-7424
▁bitter	-7425
▁booked	-7426
▁bulgar	-7427
▁carpet	-7428
▁client	-7429
▁contra	-7430
▁copper	-7431
▁county	-7432
▁cousin	-7433
▁cruise	-7434
▁dinner	-7435
▁dosage	-7436
▁dragon	-7437
▁driver	-7438
▁earths	-7439
▁effort	-7440
▁elizab	-7441
▁enable	-7442
▁entity	-7443
▁extrem	-7444
▁fellow	-7445
▁filter	-7446
▁flavor	-7447
▁freeze	-7448
▁grocer	-7449
▁hacked	-7450
▁hungry	-7451
▁inches	-7452
▁instru	-7453
▁island	-7454
▁kindle	-7455
▁lesson	-7456
▁listed	-7457
▁metals	-7458
▁meteor	-7459
▁meters	-7460
▁morals	-7461
▁morgan	-7462
▁motors	-7463
▁nagpur	-7464
▁nether	-7465
▁nobody	-7466
▁oldest	-7467
▁passes	-7468
▁pedoph	-7469
▁pencil	-7470
▁petrol	-7471
▁pilani	-7472
▁pilots	-7473
▁pocket	-7474
▁prince	-7475
▁puppet	-7476
▁racial	-7477
▁refund	-7478
▁regime	-7479
▁rocket	-7480
▁safely	-7481
▁safest	-7482
▁shaped	-7483
▁solved	-7484
▁spoken	-7485
▁stated	-7486
▁strict	-7487
▁string	-7488
▁tinder	-7489
▁toward	-7490
▁tricks	-7491
▁verbal	-7492
▁viable	-7493
▁volume	-7494
abharata	-7495
fortable	-7496
gressive	-7497
▁abusive	-7498
▁accused	-7499
▁airline	-7500
▁analyze	-7501
▁anatomy	-7502
▁appoint	-7503
▁approve	-7504
▁autocad	-7505
▁beatles	-7506
▁bedroom	-7507
▁bengali	-7508
▁blindly	-7509
▁boiling	-7510
▁captain	-7511
▁charity	-7512
▁cheaper	-7513
▁concert	-7514
▁cutting	-7515
▁dangers	-7516
▁default	-7517
▁denmark	-7518
▁earthqu	-7519
▁elastic	-7520
▁elected	-7521
▁emperor	-7522
▁engines	-7523
▁evening	-7524
▁faculty	-7525
▁farmers	-7526
▁fastest	-7527
▁flights	-7528
▁fortune	-7529
▁habitat	-7530
▁harvard	-7531
▁holiday	-7532
▁housing	-7533
▁integer	-7534
▁iranian	-7535
▁islands	-7536
▁jewelry	-7537
▁justify	-7538
▁kannada	-7539
▁krishna	-7540
▁lottery	-7541
▁martial	-7542
▁massage	-7543
▁massive	-7544
▁menstru	-7545
▁microbi	-7546
▁mindset	-7547
▁missile	-7548
▁mothers	-7549
▁neglect	-7550
▁organis	-7551
▁penalty	-7552
▁periods	-7553
▁podcast	-7554
▁posting	-7555
▁prelims	-7556
▁privile	-7557
▁propose	-7558
▁quarter	-7559
▁realise	-7560
▁returns	-7561
▁shotgun	-7562
▁sponsor	-7563
▁substit	-7564
▁swedish	-7565
▁symbols	-7566
▁telecom	-7567
▁ukraine	-7568
▁unusual	-7569
▁upgrade	-7570
▁victims	-7571
▁warrant	-7572
▁watches	-7573
▁william	-7574
▁winning	-7575
abilities	-7576
ationally	-7577
▁animated	-7578
▁astrolog	-7579
▁attacked	-7580
▁autistic	-7581
▁brahmins	-7582
▁buddhism	-7583
▁civilian	-7584
▁clearing	-7585
▁declared	-7586
▁detailed	-7587
▁distract	-7588
▁district	-7589
▁division	-7590
▁divorced	-7591
▁dreaming	-7592
▁einstein	-7593
▁feminism	-7594
▁feminist	-7595
▁finished	-7596
▁forehead	-7597
▁freshers	-7598
▁hinduism	-7599
▁homeless	-7600
▁homophob	-7601
▁horrible	-7602
▁indirect	-7603
▁infinity	-7604
▁innocent	-7605
▁instance	-7606
▁journals	-7607
▁longterm	-7608
▁machines	-7609
▁magazine	-7610
▁mandarin	-7611
▁mercedes	-7612
▁monopoly	-7613
▁murdered	-7614
▁observed	-7615
▁occurred	-7616
▁parallel	-7617
▁pleasure	-7618
▁presence	-7619
▁reliance	-7620
▁replaced	-7621
▁retrieve	-7622
▁returned	-7623
▁sequence	-7624
▁siblings	-7625
▁sounding	-7626
▁spectrum	-7627
▁standing	-7628
▁stations	-7629
▁synchron	-7630
▁treating	-7631
▁trillion	-7632
▁virginia	-7633
▁weakness	-7634
▁youtuber	-7635
▁afterlife	-7636
▁appearing	-7637
▁astronomy	-7638
▁attending	-7639
▁awareness	-7640
▁broadcast	-7641
▁chemicals	-7642
▁communism	-7643
▁computing	-7644
▁diagnosis	-7645
▁dimension	-7646
▁essential	-7647
▁excellent	-7648
▁freelance	-7649
▁furniture	-7650
▁immigrate	-7651
▁inflation	-7652
▁intention	-7653
▁introvert	-7654
▁itinerary	-7655
▁melbourne	-7656
▁mongolian	-7657
▁organisms	-7658
▁organized	-7659
▁overrated	-7660
▁passwords	-7661
▁poisonous	-7662
▁portfolio	-7663
▁potassium	-7664
▁presented	-7665
▁programme	-7666
▁protected	-7667
▁providers	-7668
▁recording	-7669
▁residents	-7670
▁secondary	-7671
▁selection	-7672
▁selective	-7673
▁spacetime	-7674
▁strangers	-7675
▁textbooks	-7676
▁therefore	-7677
▁unlimited	-7678
▁virginity	-7679
▁wrestling	-7680
▁additional	-7681
▁ambassador	-7682
▁applicable	-7683
▁attraction	-7684
▁calculator	-7685
▁classified	-7686
▁collection	-7687
▁commission	-7688
▁compressor	-7689
▁containing	-7690
▁discussion	-7691
▁everywhere	-7692
▁foundation	-7693
▁harassment	-7694
▁indonesian	-7695
▁interviews	-7696
▁medication	-7697
▁narcissism	-7698
▁overweight	-7699
▁projection	-7700
▁psychopath	-7701
▁regardless	-7702
▁regression	-7703
▁relatively	-7704
▁represents	-7705
▁threatened	-7706
▁agriculture	-7707
▁antidepress	-7708
▁correlation	-7709
▁girlfriends	-7710
▁grandfather	-7711
▁inspiration	-7712
▁mahabharata	-7713
▁netherlands	-7714
▁pornography	-7715
▁prestigious	-7716
▁schizophren	-7717
▁statistical	-7718
▁achievements	-7719
▁availability	-7720
▁civilization	-7721
▁deliberately	-7722
▁masturbating	-7723
▁notification	-7724
▁particularly	-7725
▁refrigerator	-7726
▁reproduction	-7727
▁subscription	-7728
▁consciousness	-7729
▁distinguishes	-7730
▁investigation	-7731
▁psychological	-7732
▁realistically	-7733
▁reinforcement	-7734
▁uncomfortable	-7735
▁administration	-7736
▁qualifications	-7737
▁responsibility	-7738
▁recommendations	-7739
45	-7740
90	-7741
cm	-7742
dm	-7743
kh	-7744
mw	-7745
nl	-7746
rc	-7747
tp	-7748
vo	-7749
ags	-7750
aid	-7751
aly	-7752
anj	-7753
aya	-7754
aze	-7755
bac	-7756
ben	-7757
bir	-7758
bow	-7759
bro	-7760
chi	-7761
chy	-7762
cop	-7763
cur	-7764
cus	-7765
def	-7766
for	-7767
gon	-7768
hea	-7769
hem	-7770
hya	-7771
iat	-7772
igo	-7773
job	-7774
jri	-7775
lar	-7776
law	-7777
lee	-7778
lse	-7779
oni	-7780
oti	-7781
pop	-7782
rav	-7783
rot	-7784
sed	-7785
spe	-7786
tes	-7787
uit	-7788
ulu	-7789
urt	-7790
uum	-7791
vey	-7792
via	-7793
why	-7794
wis	-7795
yll	-7796
▁01	-7797
▁55	-7798
▁88	-7799
▁ds	-7800
▁dv	-7801
▁ft	-7802
▁gf	-7803
▁ku	-7804
▁mg	-7805
▁nm	-7806
▁nt	-7807
▁om	-7808
▁pv	-7809
▁tb	-7810
▁um	-7811
▁vr	-7812
2017	-7813
abet	-7814
ango	-7815
anna	-7816
apar	-7817
aska	-7818
avan	-7819
bean	-7820
bell	-7821
cers	-7822
esis	-7823
fall	-7824
free	-7825
gary	-7826
haar	-7827
hana	-7828
hand	-7829
hero	-7830
hips	-7831
hors	-7832
icit	-7833
illa	-7834
indu	-7835
inks	-7836
itee	-7837
itis	-7838
kill	-7839
krit	-7840
leum	-7841
mals	-7842
mato	-7843
nadu	-7844
ogan	-7845
olas	-7846
oman	-7847
orse	-7848
paid	-7849
pple	-7850
rage	-7851
rain	-7852
reds	-7853
rets	-7854
rics	-7855
rite	-7856
rium	-7857
rust	-7858
rypt	-7859
seum	-7860
stit	-7861
test	-7862
thal	-7863
then	-7864
tons	-7865
udes	-7866
unes	-7867
urgy	-7868
vest	-7869
will	-7870
▁101	-7871
▁250	-7872
▁400	-7873
▁als	-7874
▁ash	-7875
▁atl	-7876
▁bor	-7877
▁cav	-7878
▁cnn	-7879
▁coo	-7880
▁css	-7881
▁ego	-7882
▁eli	-7883
▁feb	-7884
▁fib	-7885
▁gad	-7886
▁gdp	-7887
▁gol	-7888
▁hob	-7889
▁hop	-7890
▁htt	-7891
▁iam	-7892
▁ink	-7893
▁isb	-7894
▁jim	-7895
▁kap	-7896
▁lev	-7897
▁luc	-7898
▁mcc	-7899
▁mcu	-7900
▁mes	-7901
▁mnc	-7902
▁mum	-7903
▁nap	-7904
▁oct	-7905
▁odd	-7906
▁ott	-7907
▁pcm	-7908
▁pdf	-7909
▁pup	-7910
▁rip	-7911
▁row	-7912
▁rss	-7913
▁sel	-7914
▁sew	-7915
▁soc	-7916
▁spa	-7917
▁ssd	-7918
▁ted	-7919
▁tet	-7920
▁tsh	-7921
▁unh	-7922
▁ups	-7923
▁upt	-7924
▁viv	-7925
▁vod	-7926
▁vpn	-7927
▁wol	-7928
▁xen	-7929
▁yrs	-7930
aceut	-7931
agger	-7932
allow	-7933
ashed	-7934
chers	-7935
conds	-7936
dress	-7937
ected	-7938
empor	-7939
encer	-7940
etary	-7941
ghter	-7942
gling	-7943
hesia	-7944
ijing	-7945
inded	-7946
irmed	-7947
isine	-7948
izers	-7949
liers	-7950
ocial	-7951
oline	-7952
ortal	-7953
oster	-7954
otism	-7955
otted	-7956
plane	-7957
pless	-7958
proof	-7959
▁	-7960
e	-7961
a	-7962
t	-7963
o	-7964
i	-7965
n	-7966
s	-7967
r	-7968
h	-7969
l	-7970
d	-7971
c	-7972
w	-7973
u	-7974
m	-7975
y	-7976
p	-7977
f	-7978
g	-7979
b	-7980
v	-7981
k	-7982
x	-7983
j	-7984
0	-7985
1	-7986
q	-7987
2	-7988
z	-7989
5	-7990
3	-7991
4	-7992
7	-7993
8	-7994
9	-7995
